{
  "version": "1.0",
  "truncation": null,
  "padding": null,
  "added_tokens": [
    {
      "id": 0,
      "content": "[PAD]",
      "single_word": false,
      "lstrip": false,
      "rstrip": false,
      "normalized": false,
      "special": true
    },
    {
      "id": 1,
      "content": "[SOS]",
      "single_word": false,
      "lstrip": false,
      "rstrip": false,
      "normalized": false,
      "special": true
    },
    {
      "id": 2,
      "content": "[EOS]",
      "single_word": false,
      "lstrip": false,
      "rstrip": false,
      "normalized": false,
      "special": true
    },
    {
      "id": 3,
      "content": "[UNK]",
      "single_word": false,
      "lstrip": false,
      "rstrip": false,
      "normalized": false,
      "special": true
    }
  ],
  "normalizer": null,
  "pre_tokenizer": {
    "type": "ByteLevel",
    "add_prefix_space": false,
    "trim_offsets": true,
    "use_regex": true
  },
  "post_processor": {
    "type": "ByteLevel",
    "add_prefix_space": true,
    "trim_offsets": false,
    "use_regex": true
  },
  "decoder": {
    "type": "ByteLevel",
    "add_prefix_space": true,
    "trim_offsets": true,
    "use_regex": true
  },
  "model": {
    "type": "BPE",
    "dropout": null,
    "unk_token": null,
    "continuing_subword_prefix": null,
    "end_of_word_suffix": null,
    "fuse_unk": false,
    "byte_fallback": false,
    "ignore_merges": false,
    "vocab": {
      "[PAD]": 0,
      "[SOS]": 1,
      "[EOS]": 2,
      "[UNK]": 3,
      "!": 4,
      "\"": 5,
      "#": 6,
      "$": 7,
      "%": 8,
      "&": 9,
      "'": 10,
      "(": 11,
      ")": 12,
      "*": 13,
      "+": 14,
      ",": 15,
      "-": 16,
      ".": 17,
      "/": 18,
      "0": 19,
      "1": 20,
      "2": 21,
      "3": 22,
      "4": 23,
      "5": 24,
      "6": 25,
      "7": 26,
      "8": 27,
      "9": 28,
      ":": 29,
      ";": 30,
      "<": 31,
      "=": 32,
      ">": 33,
      "?": 34,
      "@": 35,
      "A": 36,
      "B": 37,
      "C": 38,
      "D": 39,
      "E": 40,
      "F": 41,
      "G": 42,
      "H": 43,
      "I": 44,
      "J": 45,
      "K": 46,
      "L": 47,
      "M": 48,
      "N": 49,
      "O": 50,
      "P": 51,
      "Q": 52,
      "R": 53,
      "S": 54,
      "T": 55,
      "U": 56,
      "V": 57,
      "W": 58,
      "X": 59,
      "Y": 60,
      "Z": 61,
      "[": 62,
      "\\": 63,
      "]": 64,
      "^": 65,
      "_": 66,
      "`": 67,
      "a": 68,
      "b": 69,
      "c": 70,
      "d": 71,
      "e": 72,
      "f": 73,
      "g": 74,
      "h": 75,
      "i": 76,
      "j": 77,
      "k": 78,
      "l": 79,
      "m": 80,
      "n": 81,
      "o": 82,
      "p": 83,
      "q": 84,
      "r": 85,
      "s": 86,
      "t": 87,
      "u": 88,
      "v": 89,
      "w": 90,
      "x": 91,
      "y": 92,
      "z": 93,
      "{": 94,
      "|": 95,
      "}": 96,
      "~": 97,
      "¡": 98,
      "¢": 99,
      "£": 100,
      "¤": 101,
      "¥": 102,
      "¦": 103,
      "§": 104,
      "¨": 105,
      "©": 106,
      "ª": 107,
      "«": 108,
      "¬": 109,
      "®": 110,
      "¯": 111,
      "°": 112,
      "±": 113,
      "²": 114,
      "³": 115,
      "´": 116,
      "µ": 117,
      "¶": 118,
      "·": 119,
      "¸": 120,
      "¹": 121,
      "º": 122,
      "»": 123,
      "¼": 124,
      "½": 125,
      "¾": 126,
      "¿": 127,
      "À": 128,
      "Á": 129,
      "Â": 130,
      "Ã": 131,
      "Ä": 132,
      "Å": 133,
      "Æ": 134,
      "Ç": 135,
      "È": 136,
      "É": 137,
      "Ê": 138,
      "Ë": 139,
      "Ì": 140,
      "Í": 141,
      "Î": 142,
      "Ï": 143,
      "Ð": 144,
      "Ñ": 145,
      "Ò": 146,
      "Ó": 147,
      "Ô": 148,
      "Õ": 149,
      "Ö": 150,
      "×": 151,
      "Ø": 152,
      "Ù": 153,
      "Ú": 154,
      "Û": 155,
      "Ü": 156,
      "Ý": 157,
      "Þ": 158,
      "ß": 159,
      "à": 160,
      "á": 161,
      "â": 162,
      "ã": 163,
      "ä": 164,
      "å": 165,
      "æ": 166,
      "ç": 167,
      "è": 168,
      "é": 169,
      "ê": 170,
      "ë": 171,
      "ì": 172,
      "í": 173,
      "î": 174,
      "ï": 175,
      "ð": 176,
      "ñ": 177,
      "ò": 178,
      "ó": 179,
      "ô": 180,
      "õ": 181,
      "ö": 182,
      "÷": 183,
      "ø": 184,
      "ù": 185,
      "ú": 186,
      "û": 187,
      "ü": 188,
      "ý": 189,
      "þ": 190,
      "ÿ": 191,
      "Ā": 192,
      "ā": 193,
      "Ă": 194,
      "ă": 195,
      "Ą": 196,
      "ą": 197,
      "Ć": 198,
      "ć": 199,
      "Ĉ": 200,
      "ĉ": 201,
      "Ċ": 202,
      "ċ": 203,
      "Č": 204,
      "č": 205,
      "Ď": 206,
      "ď": 207,
      "Đ": 208,
      "đ": 209,
      "Ē": 210,
      "ē": 211,
      "Ĕ": 212,
      "ĕ": 213,
      "Ė": 214,
      "ė": 215,
      "Ę": 216,
      "ę": 217,
      "Ě": 218,
      "ě": 219,
      "Ĝ": 220,
      "ĝ": 221,
      "Ğ": 222,
      "ğ": 223,
      "Ġ": 224,
      "ġ": 225,
      "Ģ": 226,
      "ģ": 227,
      "Ĥ": 228,
      "ĥ": 229,
      "Ħ": 230,
      "ħ": 231,
      "Ĩ": 232,
      "ĩ": 233,
      "Ī": 234,
      "ī": 235,
      "Ĭ": 236,
      "ĭ": 237,
      "Į": 238,
      "į": 239,
      "İ": 240,
      "ı": 241,
      "Ĳ": 242,
      "ĳ": 243,
      "Ĵ": 244,
      "ĵ": 245,
      "Ķ": 246,
      "ķ": 247,
      "ĸ": 248,
      "Ĺ": 249,
      "ĺ": 250,
      "Ļ": 251,
      "ļ": 252,
      "Ľ": 253,
      "ľ": 254,
      "Ŀ": 255,
      "ŀ": 256,
      "Ł": 257,
      "ł": 258,
      "Ń": 259,
      "Ġt": 260,
      "Ġa": 261,
      "he": 262,
      "in": 263,
      "at": 264,
      "Ġthe": 265,
      "Ġ\\": 266,
      "er": 267,
      "Ġo": 268,
      "Ġ$": 269,
      "re": 270,
      "Ġ+": 271,
      "Ġ-": 272,
      "Ġs": 273,
      "Ġf": 274,
      "nd": 275,
      "Ġc": 276,
      "Ġb": 277,
      "al": 278,
      "on": 279,
      "is": 280,
      "Ġ=": 281,
      "Ġw": 282,
      "le": 283,
      "or": 284,
      "ot": 285,
      "Ġof": 286,
      "it": 287,
      "es": 288,
      "en": 289,
      "ra": 290,
      "Ġd": 291,
      "Ġp": 292,
      "Ġand": 293,
      "ri": 294,
      "dot": 295,
      "an": 296,
      "cdot": 297,
      "Ġ1": 298,
      "Ġto": 299,
      "Ġm": 300,
      "ed": 301,
      "ing": 302,
      "ion": 303,
      "Ġe": 304,
      "Ġn": 305,
      "et": 306,
      "Ġin": 307,
      "ou": 308,
      "Ġh": 309,
      "Ġis": 310,
      "rac": 311,
      "ve": 312,
      "ar": 313,
      "om": 314,
      "frac": 315,
      "}{": 316,
      "Ġ2": 317,
      "mat": 318,
      "Ġ(": 319,
      "gh": 320,
      "um": 321,
      "ct": 322,
      "Ġth": 323,
      "Ġg": 324,
      "ft": 325,
      "ent": 326,
      "Ġre": 327,
      "Ġfor": 328,
      "ght": 329,
      "ro": 330,
      "as": 331,
      "Ġ$\\": 332,
      "ic": 333,
      "ol": 334,
      "os": 335,
      "te": 336,
      "Ġbe": 337,
      "$,": 338,
      "math": 339,
      "right": 340,
      "Ġy": 341,
      "ĠS": 342,
      "il": 343,
      "im": 344,
      "Ġl": 345,
      "The": 346,
      "left": 347,
      "ĠI": 348,
      "ers": 349,
      "Ġv": 350,
      "$.": 351,
      "us": 352,
      "iv": 353,
      "Ġ3": 354,
      "id": 355,
      "Ġx": 356,
      "Ġan": 357,
      "ut": 358,
      "qu": 359,
      "ly": 360,
      "ith": 361,
      "Ġ0": 362,
      "**": 363,
      "Ġ4": 364,
      "{\\": 365,
      "umb": 366,
      "Ġwith": 367,
      "ow": 368,
      "Let": 369,
      "ch": 370,
      "Ġthat": 371,
      "am": 372,
      "un": 373,
      "Ġnumb": 374,
      "Ġas": 375,
      "res": 376,
      "Ġyou": 377,
      "ul": 378,
      "ation": 379,
      "ce": 380,
      "Ġon": 381,
      "Ġpro": 382,
      "ive": 383,
      "ab": 384,
      "Ġex": 385,
      "ur": 386,
      "_{": 387,
      "ir": 388,
      "pp": 389,
      "âĢ": 390,
      "ay": 391,
      "ll": 392,
      "rm": 393,
      "Ġ5": 394,
      "ĠThe": 395,
      "mathrm": 396,
      "tep": 397,
      "Ġwe": 398,
      "Ġcan": 399,
      "Ġcom": 400,
      "mathb": 401,
      "ĠC": 402,
      ")^": 403,
      ")$": 404,
      "Ġ&": 405,
      "ĠA": 406,
      "(-": 407,
      "hat": 408,
      "ha": 409,
      "Ġha": 410,
      "ge": 411,
      "mathbb": 412,
      "}^": 413,
      "ity": 414,
      "olve": 415,
      "Ġby": 416,
      "Ġst": 417,
      "Ġare": 418,
      "}\\": 419,
      "ction": 420,
      "ver": 421,
      "Ġit": 422,
      "Step": 423,
      "if": 424,
      "Ġk": 425,
      "sum": 426,
      "ple": 427,
      "Ġne": 428,
      "Ġu": 429,
      "pe": 430,
      "00": 431,
      "ĠT": 432,
      "ose": 433,
      "ĠF": 434,
      "ate": 435,
      "Ġcon": 436,
      "Ġde": 437,
      "(\\": 438,
      ")\\": 439,
      "st": 440,
      "Ġhe": 441,
      "ĠP": 442,
      "ĠW": 443,
      "Ġequ": 444,
      "ĠM": 445,
      "Ġnumbers": 446,
      "ĠB": 447,
      "pha": 448,
      "ents": 449,
      "alpha": 450,
      "Ġ6": 451,
      "}{\\": 452,
      ")/": 453,
      "rt": 454,
      "pres": 455,
      "Ġhave": 456,
      "est": 457,
      "^{": 458,
      "rix": 459,
      "ad": 460,
      "ue": 461,
      "ig": 462,
      "ill": 463,
      "Ġse": 464,
      "ist": 465,
      "Ġr": 466,
      "Ġall": 467,
      "Ġwhe": 468,
      "ĠLet": 469,
      "th": 470,
      "âĢĻ": 471,
      "}(": 472,
      "ies": 473,
      "all": 474,
      "Ġthis": 475,
      "Ġ(-": 476,
      "unction": 477,
      "Ġz": 478,
      "ore": 479,
      "able": 480,
      "Ġle": 481,
      "Ġwh": 482,
      "Ġreal": 483,
      "ak": 484,
      "Ġsu": 485,
      "ĠH": 486,
      "ter": 487,
      "ac": 488,
      "imes": 489,
      ").": 490,
      "ĠD": 491,
      "Ġnumber": 492,
      "her": 493,
      "se": 494,
      "Ġfunction": 495,
      "Ġj": 496,
      "matrix": 497,
      "Ġor": 498,
      "What": 499,
      "pmatrix": 500,
      "rom": 501,
      "ative": 502,
      "ial": 503,
      "eta": 504,
      "end": 505,
      "Ġi": 506,
      "for": 507,
      "Ġus": 508,
      "fty": 509,
      "infty": 510,
      "art": 511,
      "ĠÐ": 512,
      "dfrac": 513,
      "eriv": 514,
      "int": 515,
      "oo": 516,
      "Ġat": 517,
      "Ð¸": 518,
      "xt": 519,
      "Ġev": 520,
      "ĠÐº": 521,
      "ĠÐºÐ¸": 522,
      "ld": 523,
      "gin": 524,
      "ess": 525,
      "Ġany": 526,
      "Ġme": 527,
      "Ġval": 528,
      "Ġ7": 529,
      "Ġtw": 530,
      "ite": 531,
      ")$.": 532,
      "Ġ8": 533,
      "ma": 534,
      "iven": 535,
      "times": 536,
      "ust": 537,
      "Ġfrom": 538,
      "ant": 539,
      "qrt": 540,
      "be": 541,
      "ind": 542,
      "erivative": 543,
      "Ġyour": 544,
      "Solve": 545,
      "Ġtwo": 546,
      "Ġwhere": 547,
      "ĠR": 548,
      "ine": 549,
      "beta": 550,
      "pl": 551,
      "ĠE": 552,
      "erm": 553,
      "ĠSolve": 554,
      "Ġal": 555,
      "ari": 556,
      "For": 557,
      "ĠG": 558,
      "cc": 559,
      "act": 560,
      "du": 561,
      ")}": 562,
      "Ġprob": 563,
      "sin": 564,
      "upp": 565,
      "and": 566,
      "\\\\": 567,
      "Ġderivative": 568,
      "ich": 569,
      "Ġnot": 570,
      "Ġso": 571,
      "ase": 572,
      "ds": 573,
      "Ġcomple": 574,
      "per": 575,
      "uppose": 576,
      "Ġhas": 577,
      "Ġwill": 578,
      "ight": 579,
      "Ġgiven": 580,
      "to": 581,
      "sqrt": 582,
      "nt": 583,
      "Ġwas": 584,
      "pect": 585,
      "ĠN": 586,
      "Ġ10": 587,
      "begin": 588,
      "press": 589,
      "abil": 590,
      "ment": 591,
      "Ġra": 592,
      "}}{\\": 593,
      "ide": 594,
      "ĠIn": 595,
      "Ġ9": 596,
      "ĠL": 597,
      "pi": 598,
      "Ġequal": 599,
      "Ġres": 600,
      "fer": 601,
      "fin": 602,
      "}$": 603,
      "ond": 604,
      "Ġvalue": 605,
      "lo": 606,
      "Ġch": 607,
      "10": 608,
      "Ġexpress": 609,
      "Ġdo": 610,
      "cos": 611,
      "12": 612,
      "gle": 613,
      "ome": 614,
      "ud": 615,
      "}$.": 616,
      "el": 617,
      "Ġpl": 618,
      "}^\\": 619,
      "Ġprobabil": 620,
      "ost": 621,
      "Ġcomplex": 622,
      "Ġvari": 623,
      ")*": 624,
      "are": 625,
      ")$,": 626,
      "ain": 627,
      "ort": 628,
      "our": 629,
      "Ġab": 630,
      "Ġtheir": 631,
      "Ġsh": 632,
      "row": 633,
      "Ġad": 634,
      "Ġwor": 635,
      "ie": 636,
      "Ġ20": 637,
      "'s": 638,
      "ip": 639,
      "Ġ12": 640,
      "age": 641,
      "ard": 642,
      "Ġout": 643,
      "ĠO": 644,
      "Ġwhich": 645,
      "ap": 646,
      "text": 647,
      "ame": 648,
      "Ġrepres": 649,
      "iz": 650,
      "ould": 651,
      "Ġapp": 652,
      "Ġprobability": 653,
      "ach": 654,
      "rou": 655,
      "teg": 656,
      "^{-": 657,
      "Ġun": 658,
      "lim": 659,
      "ure": 660,
      "Ġprodu": 661,
      "out": 662,
      "ated": 663,
      "Ġq": 664,
      "Ġsum": 665,
      "ng": 666,
      "Ġone": 667,
      "forall": 668,
      "Ġequation": 669,
      "od": 670,
      "ult": 671,
      "Ġcomp": 672,
      "ks": 673,
      "Ġget": 674,
      "Ġinteg": 675,
      "ition": 676,
      "sw": 677,
      "inom": 678,
      "Ġ|": 679,
      "ice": 680,
      "ear": 681,
      "Ġcl": 682,
      "ution": 683,
      "ake": 684,
      "ĠJ": 685,
      "Ġhol": 686,
      "Ġman": 687,
      "Ġvariable": 688,
      "cho": 689,
      "ag": 690,
      "oc": 691,
      "Ġthen": 692,
      "ast": 693,
      "ĠâĢ": 694,
      "swer": 695,
      "Ġterm": 696,
      "Ġform": 697,
      "Ġpos": 698,
      "In": 699,
      "ib": 700,
      "Ġser": 701,
      "tan": 702,
      "ĠY": 703,
      "Ġset": 704,
      "ong": 705,
      "ke": 706,
      "Ġproduct": 707,
      "ndom": 708,
      "15": 709,
      "Ġrandom": 710,
      ")^{": 711,
      "ance": 712,
      "dx": 713,
      "iffer": 714,
      "cl": 715,
      "Ġ*": 716,
      "))": 717,
      "Ġup": 718,
      "ally": 719,
      "Ġneed": 720,
      "les": 721,
      "ect": 722,
      "ther": 723,
      "ry": 724,
      "cul": 725,
      "ray": 726,
      "Ġtri": 727,
      "Ġanswer": 728,
      "ous": 729,
      "Ġcont": 730,
      "one": 731,
      "up": 732,
      "ens": 733,
      "ass": 734,
      "Ġmore": 735,
      "Ġ(\\": 736,
      "Ġholds": 737,
      "ff": 738,
      "ence": 739,
      "Ġbut": 740,
      "Ġper": 741,
      "Ġqu": 742,
      ",\\": 743,
      "rib": 744,
      "..": 745,
      "}:": 746,
      "irst": 747,
      "Ġte": 748,
      "actor": 749,
      "Ġexpression": 750,
      "Ġdis": 751,
      "Ġmean": 752,
      "ays": 753,
      "33": 754,
      "Ġthey": 755,
      "ree": 756,
      "Ġwhat": 757,
      "his": 758,
      "Ġ$(": 759,
      "ack": 760,
      "ula": 761,
      "ov": 762,
      "Ġ15": 763,
      "alcul": 764,
      "ides": 765,
      "}}": 766,
      "dots": 767,
      "ator": 768,
      "Ġdiffer": 769,
      "so": 770,
      "20": 771,
      "ĠU": 772,
      "ime": 773,
      "now": 774,
      "ire": 775,
      "Ġfe": 776,
      "ne": 777,
      "ons": 778,
      "atur": 779,
      "pt": 780,
      "Ġrespect": 781,
      "ook": 782,
      "Ġrepresents": 783,
      "Ġour": 784,
      "Ġ<": 785,
      ">>": 786,
      "array": 787,
      "Suppose": 788,
      "Ġover": 789,
      "11": 790,
      "Ġmat": 791,
      "ations": 792,
      "'t": 793,
      "Ġen": 794,
      "!}": 795,
      "Ġro": 796,
      "og": 797,
      "Ġfirst": 798,
      "Ġim": 799,
      "binom": 800,
      "Ġevents": 801,
      "Ġdiv": 802,
      "Ġfind": 803,
      "Ġinter": 804,
      "Ġ11": 805,
      "ngth": 806,
      "ider": 807,
      "ĠSuppose": 808,
      "Ġtra": 809,
      "ract": 810,
      "ike": 811,
      "Ġsec": 812,
      "ĠFor": 813,
      "ount": 814,
      "arrow": 815,
      "If": 816,
      "*\\": 817,
      "ign": 818,
      "Ġthan": 819,
      "Ġdefin": 820,
      "angle": 821,
      "its": 822,
      "atural": 823,
      "Ġformula": 824,
      "ood": 825,
      "we": 826,
      "ĠV": 827,
      "16": 828,
      "choose": 829,
      "Ġalso": 830,
      "Ġmy": 831,
      "Ġlength": 832,
      "Ġyear": 833,
      "istrib": 834,
      "impl": 835,
      "Ġnatural": 836,
      "leq": 837,
      "ile": 838,
      "Ġfunctions": 839,
      "Ġother": 840,
      "Ġ16": 841,
      "tfrac": 842,
      "ality": 843,
      "Ġbet": 844,
      "Ġthere": 845,
      "igma": 846,
      "ere": 847,
      "ical": 848,
      "sigma": 849,
      "14": 850,
      "da": 851,
      "Ġabout": 852,
      "Ġtime": 853,
      "Ġ14": 854,
      "13": 855,
      "erse": 856,
      "ace": 857,
      "Ġhis": 858,
      "Ġrec": 859,
      "reat": 860,
      "Ġden": 861,
      "Ġtr": 862,
      "ĠIf": 863,
      "amb": 864,
      "Ġ13": 865,
      "ys": 866,
      "ĠX": 867,
      "Ġadd": 868,
      "Ġgo": 869,
      "cre": 870,
      "Ġexp": 871,
      "Ġcase": 872,
      "mation": 873,
      "Ġprov": 874,
      "ĠWe": 875,
      "Ġsp": 876,
      "Ġits": 877,
      "ĠK": 878,
      "18": 879,
      "ĠStep": 880,
      "|^": 881,
      "Ġnext": 882,
      "ub": 883,
      "Ġwork": 884,
      "ges": 885,
      "Ġmany": 886,
      "Ġif": 887,
      "als": 888,
      "low": 889,
      "Ġpo": 890,
      "Ġco": 891,
      "em": 892,
      "oth": 893,
      "Ġwho": 894,
      "ound": 895,
      "ps": 896,
      "Ġthem": 897,
      "Ġevent": 898,
      "ck": 899,
      "Ġ19": 900,
      "use": 901,
      "ary": 902,
      "Ġeach": 903,
      "Ġhow": 904,
      "ia": 905,
      "Ġpart": 906,
      "ates": 907,
      "ph": 908,
      "Ġinv": 909,
      "Ġspe": 910,
      "Ġsecond": 911,
      "otal": 912,
      "Ġknow": 913,
      "Ġdifferent": 914,
      "ĠThis": 915,
      "ares": 916,
      "Ġlike": 917,
      "very": 918,
      "ick": 919,
      "),": 920,
      "lamb": 921,
      "lambda": 922,
      "Ġthese": 923,
      "ions": 924,
      "geq": 925,
      "Ġshe": 926,
      "Ġsa": 927,
      "Ġsome": 928,
      "Ġwhen": 929,
      "Ġ,": 930,
      "ark": 931,
      "istribution": 932,
      "Ġ18": 933,
      "cup": 934,
      "hes": 935,
      "Ġnew": 936,
      "ĠWhat": 937,
      "Ġuse": 938,
      "Ġinfin": 939,
      "ues": 940,
      "com": 941,
      "Ġpe": 942,
      "Ġusing": 943,
      "ings": 944,
      "itive": 945,
      "Ġwr": 946,
      "ccess": 947,
      "Ġappro": 948,
      "ces": 949,
      ")^{\\": 950,
      "ible": 951,
      "ss": 952,
      "ove": 953,
      "ample": 954,
      "fore": 955,
      "hen": 956,
      "equ": 957,
      "ĠIt": 958,
      "Ġinto": 959,
      "ices": 960,
      "Ġright": 961,
      "ify": 962,
      "ors": 963,
      "ities": 964,
      "ert": 965,
      "Ġpri": 966,
      "Ġher": 967,
      "ating": 968,
      "ween": 969,
      "Ġrel": 970,
      "cap": 971,
      "Ġcomm": 972,
      "itt": 973,
      "25": 974,
      ")/(": 975,
      "Ġbetween": 976,
      "17": 977,
      "Ġtrue": 978,
      "Ġangle": 979,
      "ery": 980,
      "Ġdefined": 981,
      "ns": 982,
      "Ġpre": 983,
      "ral": 984,
      "Ġsol": 985,
      "Ġdet": 986,
      ")/(-": 987,
      "ild": 988,
      "Ġwere": 989,
      "log": 990,
      "clud": 991,
      "Ġpositive": 992,
      "ru": 993,
      "Ġwould": 994,
      "led": 995,
      "ful": 996,
      "Ġtotal": 997,
      "Ġdenot": 998,
      ")}{": 999,
      "pected": 1000,
      "Ġtriangle": 1001,
      "Ġhad": 1002,
      "Ġevery": 1003,
      "ird": 1004,
      "âĢĿ": 1005,
      "arest": 1006,
      "}[": 1007,
      "ied": 1008,
      "av": 1009,
      "mu": 1010,
      "Ġnearest": 1011,
      "Ġbu": 1012,
      "-\\": 1013,
      "ish": 1014,
      "^{\\": 1015,
      "ta": 1016,
      "000": 1017,
      "ople": 1018,
      "24": 1019,
      "ided": 1020,
      "val": 1021,
      "Ġsub": 1022,
      "ives": 1023,
      "alculate": 1024,
      "Ġbeen": 1025,
      "Ġam": 1026,
      "/(-": 1027,
      "fter": 1028,
      "cial": 1029,
      "amma": 1030,
      "Ġlar": 1031,
      "Ġboth": 1032,
      "Ġsuch": 1033,
      "Ġmake": 1034,
      "port": 1035,
      "equality": 1036,
      "Ġmin": 1037,
      "ĠCh": 1038,
      "19": 1039,
      "Ġag": 1040,
      "Right": 1041,
      "Ġsides": 1042,
      "Ġsqu": 1043,
      "Ġcol": 1044,
      "Ġsc": 1045,
      "ĠSt": 1046,
      "Rightarrow": 1047,
      "ink": 1048,
      "Ġ<<": 1049,
      "Ġoff": 1050,
      "30": 1051,
      "Ġcons": 1052,
      "Ġind": 1053,
      "pm": 1054,
      "Ġseries": 1055,
      "50": 1056,
      "Ġpa": 1057,
      "ep": 1058,
      "own": 1059,
      "Ġpeople": 1060,
      "idering": 1061,
      "uch": 1062,
      "Ġjust": 1063,
      "Ġdes": 1064,
      "ower": 1065,
      "Ġwant": 1066,
      "ram": 1067,
      "Ġsm": 1068,
      "Ġonly": 1069,
      "Ġ17": 1070,
      "ran": 1071,
      "}*": 1072,
      "hed": 1073,
      "Ġ\"": 1074,
      "ince": 1075,
      "ans": 1076,
      "implify": 1077,
      "Ġ24": 1078,
      "Ġexpected": 1079,
      "ord": 1080,
      "ĠSo": 1081,
      "ient": 1082,
      "Ġthird": 1083,
      "ob": 1084,
      "Ġlengths": 1085,
      "rough": 1086,
      "Ġint": 1087,
      "Ġwell": 1088,
      "day": 1089,
      "osite": 1090,
      "ning": 1091,
      "ĠTo": 1092,
      "perator": 1093,
      "ĠâĢľ": 1094,
      "ively": 1095,
      "ĠThere": 1096,
      "ail": 1097,
      "igh": 1098,
      "}$,": 1099,
      "ĠHe": 1100,
      "part": 1101,
      "Ġ30": 1102,
      "name": 1103,
      "Ġsat": 1104,
      "mb": 1105,
      "Ġhel": 1106,
      "io": 1107,
      "Ġdoes": 1108,
      "Ġsample": 1109,
      "aw": 1110,
      "60": 1111,
      "Ġserv": 1112,
      "isf": 1113,
      "ang": 1114,
      "operator": 1115,
      "Ġstud": 1116,
      "operatorname": 1117,
      "Ġ25": 1118,
      "get": 1119,
      "Ġsuccess": 1120,
      "Ġbec": 1121,
      "Ġsatisf": 1122,
      "ater": 1123,
      "Ġmult": 1124,
      "Ġmust": 1125,
      "Ġday": 1126,
      "Ġthrough": 1127,
      "ize": 1128,
      "Ġstart": 1129,
      "Ġcar": 1130,
      "oy": 1131,
      "Ġopp": 1132,
      ")!": 1133,
      "Ġmay": 1134,
      "vi": 1135,
      "Ġside": 1136,
      "Ġway": 1137,
      "ually": 1138,
      "})": 1139,
      "Ġwrt": 1140,
      "Ġexpressed": 1141,
      "ments": 1142,
      "Ġsee": 1143,
      "ress": 1144,
      "Ġyears": 1145,
      "Ġposs": 1146,
      "hip": 1147,
      "Ġ>": 1148,
      "Ġno": 1149,
      "Ġinequality": 1150,
      "Ġconver": 1151,
      "iss": 1152,
      "40": 1153,
      "ential": 1154,
      "tem": 1155,
      "Ġbase": 1156,
      "Ġsquare": 1157,
      "Ġvalues": 1158,
      "Ġob": 1159,
      "Ġfol": 1160,
      "Ġ/": 1161,
      "\\|": 1162,
      "ures": 1163,
      "Ġund": 1164,
      "Ġfin": 1165,
      "Ġmost": 1166,
      ")\\,\\": 1167,
      "lect": 1168,
      "ise": 1169,
      "Ġinclud": 1170,
      "Ġinfinite": 1171,
      "ause": 1172,
      "Ġmuch": 1173,
      "Ġrespectively": 1174,
      "...": 1175,
      "Ġpoint": 1176,
      "ory": 1177,
      "Ġgreat": 1178,
      "Ġcost": 1179,
      "Ġhour": 1180,
      "Ġhelp": 1181,
      "ĠThen": 1182,
      "lic": 1183,
      "Ġdifferenti": 1184,
      "},": 1185,
      "ĠHow": 1186,
      "Ġar": 1187,
      "Ġpol": 1188,
      "round": 1189,
      "wn": 1190,
      "aking": 1191,
      "Ġlarge": 1192,
      "\\|_": 1193,
      "}}{": 1194,
      "pro": 1195,
      "ade": 1196,
      "Ġph": 1197,
      "Ġintegral": 1198,
      "Ġback": 1199,
      "Ġcre": 1200,
      "Ġsets": 1201,
      "Ġinteger": 1202,
      "Ġlim": 1203,
      "ute": 1204,
      "Ġdivided": 1205,
      "Ġreg": 1206,
      "Ġstand": 1207,
      "))$": 1208,
      "Ġrepresent": 1209,
      "Ġwee": 1210,
      "ject": 1211,
      "ian": 1212,
      "Ġfactor": 1213,
      "line": 1214,
      "wed": 1215,
      "Ġcalcul": 1216,
      "dd": 1217,
      "ox": 1218,
      "Ġlook": 1219,
      "Ġafter": 1220,
      "mer": 1221,
      "ĠâĢĵ": 1222,
      "ased": 1223,
      "hich": 1224,
      "Ġdistribution": 1225,
      "xi": 1226,
      "Ġsupp": 1227,
      "Ġacc": 1228,
      "Ġstate": 1229,
      "und": 1230,
      "Ġins": 1231,
      "op": 1232,
      "Ġmass": 1233,
      "dy": 1234,
      "lt": 1235,
      "}{(": 1236,
      "^\\": 1237,
      "Ġfollow": 1238,
      "ual": 1239,
      "Ġlimit": 1240,
      "Ġtake": 1241,
      "Ġact": 1242,
      "verage": 1243,
      "Cons": 1244,
      "akes": 1245,
      "Ġexper": 1246,
      "orm": 1247,
      "<<": 1248,
      "Ġpossible": 1249,
      "28": 1250,
      "cess": 1251,
      "Ġvery": 1252,
      "Ġent": 1253,
      "Ġbus": 1254,
      "ric": 1255,
      "iness": 1256,
      "Ġed": 1257,
      "me": 1258,
      "âĪ": 1259,
      "Ġdeterm": 1260,
      "ific": 1261,
      "ough": 1262,
      "We": 1263,
      "ĠYou": 1264,
      "ron": 1265,
      "ĠRe": 1266,
      "Ġeven": 1267,
      "ved": 1268,
      "der": 1269,
      "Ġdifferentiable": 1270,
      "limits": 1271,
      "utes": 1272,
      "ced": 1273,
      "Ġgra": 1274,
      "any": 1275,
      "other": 1276,
      "lf": 1277,
      "partial": 1278,
      ")}\\": 1279,
      "formation": 1280,
      "Ġcontin": 1281,
      "Ġmon": 1282,
      "Ġclos": 1283,
      "ving": 1284,
      "Factor": 1285,
      "Ġke": 1286,
      "Ġsqrt": 1287,
      ")\\,": 1288,
      "tern": 1289,
      "yp": 1290,
      "Ġtimes": 1291,
      "Ġpr": 1292,
      "Ġthree": 1293,
      "gt": 1294,
      "Ġloc": 1295,
      "erson": 1296,
      "Ġ$-": 1297,
      "vel": 1298,
      "ax": 1299,
      "Ġsame": 1300,
      "tract": 1301,
      "Ġ{": 1302,
      "Ġplay": 1303,
      "Ġshould": 1304,
      "ner": 1305,
      "Ġac": 1306,
      "Ġnow": 1307,
      "ork": 1308,
      "form": 1309,
      "Ġconst": 1310,
      "ular": 1311,
      "Ġdid": 1312,
      "the": 1313,
      "eth": 1314,
      "Ġlong": 1315,
      "inomial": 1316,
      "wedge": 1317,
      "Ġcould": 1318,
      "Ġangles": 1319,
      ")*\\": 1320,
      "Ġdown": 1321,
      "Ġprovides": 1322,
      "Ġconverges": 1323,
      "Ġsolution": 1324,
      "alle": 1325,
      "dz": 1326,
      "Ġcalculated": 1327,
      "ife": 1328,
      "crete": 1329,
      "27": 1330,
      "Ġdec": 1331,
      "{-": 1332,
      "Ġhome": 1333,
      "iew": 1334,
      "ting": 1335,
      "Ġmatrix": 1336,
      "ily": 1337,
      "ble": 1338,
      "Ġ40": 1339,
      "ystem": 1340,
      "Ġcond": 1341,
      "Ġaverage": 1342,
      "Ġmulti": 1343,
      "Ġ((-": 1344,
      "Ġcho": 1345,
      "ational": 1346,
      "''": 1347,
      "urn": 1348,
      "Ġcomput": 1349,
      "ix": 1350,
      "100": 1351,
      "ience": 1352,
      "36": 1353,
      "Ġmeans": 1354,
      "Ġdi": 1355,
      "Ġbecause": 1356,
      "Ġocc": 1357,
      "Ġgood": 1358,
      "80": 1359,
      "Ġread": 1360,
      "ĠPro": 1361,
      "Ġbest": 1362,
      "*(": 1363,
      "Ġche": 1364,
      "Ġhigh": 1365,
      "velo": 1366,
      "ersection": 1367,
      "Ġopposite": 1368,
      "Ġintersection": 1369,
      "Ġown": 1370,
      "Ġinterval": 1371,
      "ets": 1372,
      "Ġunion": 1373,
      "Ġinformation": 1374,
      "Ġrequ": 1375,
      "uring": 1376,
      "ways": 1377,
      "de": 1378,
      "olog": 1379,
      "ining": 1380,
      "ew": 1381,
      "Ġpower": 1382,
      "Ġdon": 1383,
      "cdots": 1384,
      "Ġdiscrete": 1385,
      "ants": 1386,
      "Ġfl": 1387,
      "ffic": 1388,
      "app": 1389,
      "ex": 1390,
      "Ġrat": 1391,
      "Ġbl": 1392,
      "Ġaw": 1393,
      "21": 1394,
      "Ġtoo": 1395,
      "ĠCom": 1396,
      "ath": 1397,
      "Ġused": 1398,
      "ows": 1399,
      "Ġmade": 1400,
      "Ġgu": 1401,
      "]$": 1402,
      "comes": 1403,
      "Ġ200": 1404,
      "ines": 1405,
      "*(-": 1406,
      "Ġweek": 1407,
      "ĠZ": 1408,
      "âĪŀ": 1409,
      "ldots": 1410,
      "ional": 1411,
      "Considering": 1412,
      "Ġass": 1413,
      "Calculate": 1414,
      "Ġant": 1415,
      "chool": 1416,
      "Ġroot": 1417,
      "Ġdesign": 1418,
      "ty": 1419,
      "Ġbusiness": 1420,
      "22": 1421,
      "dotsm": 1422,
      "gan": 1423,
      "ven": 1424,
      "over": 1425,
      "clus": 1426,
      "Given": 1427,
      "gamma": 1428,
      "Ġexact": 1429,
      "Ġend": 1430,
      "Ġdh": 1431,
      "Ġear": 1432,
      "Cov": 1433,
      "Ġ...": 1434,
      "Ġ50": 1435,
      "ren": 1436,
      "Ġcomes": 1437,
      "Ġve": 1438,
      "Ġprog": 1439,
      "Ġperson": 1440,
      "ĠTh": 1441,
      "Ġ27": 1442,
      "ages": 1443,
      "Ġ100": 1444,
      "Ġexpon": 1445,
      "Ġcor": 1446,
      "ined": 1447,
      "ĠDistribution": 1448,
      "##": 1449,
      "When": 1450,
      "ĠĠ": 1451,
      "irc": 1452,
      "Ġbeing": 1453,
      "lem": 1454,
      "Ġinverse": 1455,
      "ug": 1456,
      "Ġav": 1457,
      "Ġstandard": 1458,
      "Simplify": 1459,
      "Ġarea": 1460,
      "3333": 1461,
      "red": 1462,
      "Ġ28": 1463,
      "Ġfac": 1464,
      "ĠAn": 1465,
      "Ġclosest": 1466,
      "ics": 1467,
      "Ġmod": 1468,
      "Ġ21": 1469,
      "ident": 1470,
      "Ġbefore": 1471,
      "aches": 1472,
      "Ġfam": 1473,
      "],": 1474,
      "{(-": 1475,
      "ars": 1476,
      "Ġ22": 1477,
      "}/": 1478,
      "ensity": 1479,
      "Ġrate": 1480,
      "velop": 1481,
      "Ġsaid": 1482,
      "Ġsystem": 1483,
      "Ġfound": 1484,
      "arch": 1485,
      "tain": 1486,
      "Ġhours": 1487,
      "35": 1488,
      "Ġalways": 1489,
      "Ġsize": 1490,
      "atives": 1491,
      "Ġplan": 1492,
      ")^{-": 1493,
      "ener": 1494,
      "45": 1495,
      "Ġsur": 1496,
      "This": 1497,
      "Ġpres": 1498,
      "Ġlast": 1499,
      "Ġrem": 1500,
      "ustom": 1501,
      "Ġless": 1502,
      "arm": 1503,
      "Ġ-\\": 1504,
      "ever": 1505,
      "gest": 1506,
      "ĠUn": 1507,
      "Ġdenoted": 1508,
      "Ġmark": 1509,
      "Ġthink": 1510,
      "Ġtrans": 1511,
      "ĠDe": 1512,
      "ouse": 1513,
      "Ġdisc": 1514,
      "Ġdensity": 1515,
      "Ġexactly": 1516,
      "Ġsha": 1517,
      "Ġrepresented": 1518,
      "Ġthose": 1519,
      "cy": 1520,
      "au": 1521,
      "}}\\": 1522,
      "alth": 1523,
      "Ġinst": 1524,
      "Ġrema": 1525,
      "Ġvis": 1526,
      "Ġsim": 1527,
      "ĠAnd": 1528,
      "Ġapproxi": 1529,
      "Ġmonth": 1530,
      "Ġ23": 1531,
      "Ġart": 1532,
      "ĠSer": 1533,
      "ull": 1534,
      "Ġcondition": 1535,
      "Ġproblem": 1536,
      "Ġ26": 1537,
      "ule": 1538,
      "(-\\": 1539,
      "gether": 1540,
      "Ġem": 1541,
      "Ġlet": 1542,
      "Ġoccur": 1543,
      "Ġsince": 1544,
      "Var": 1545,
      "Ġest": 1546,
      "Ġhand": 1547,
      "chn": 1548,
      "))$.": 1549,
      "land": 1550,
      "Ġcur": 1551,
      "],[": 1552,
      "Ġchan": 1553,
      "Ġminutes": 1554,
      "Ġhere": 1555,
      "riend": 1556,
      "Ġquest": 1557,
      "ĠTherefore": 1558,
      "ins": 1559,
      "23": 1560,
      "Ġdays": 1561,
      "ote": 1562,
      "Ġcount": 1563,
      "ale": 1564,
      "Ġcha": 1565,
      "Ġmed": 1566,
      "Ġ60": 1567,
      "Ġcontinu": 1568,
      "oney": 1569,
      "alk": 1570,
      "26": 1571,
      "read": 1572,
      "Ġagain": 1573,
      "ave": 1574,
      "Ġdist": 1575,
      "neq": 1576,
      "Ġ(-\\": 1577,
      "old": 1578,
      "ts": 1579,
      "Gamma": 1580,
      "Find": 1581,
      "Ġdifference": 1582,
      "Ġtogether": 1583,
      "Ġ\\|": 1584,
      "Ġterms": 1585,
      "ves": 1586,
      "Ġ${": 1587,
      "Ġsign": 1588,
      "Ġeas": 1589,
      "Ġsatisfied": 1590,
      "viation": 1591,
      "Ġchild": 1592,
      "ĠAl": 1593,
      "Ġwhile": 1594,
      "ason": 1595,
      "Ġprof": 1596,
      "Ġstudents": 1597,
      "Ġprogram": 1598,
      "ĠShe": 1599,
      "Ġorder": 1600,
      "bs": 1601,
      "Ġworld": 1602,
      "/(": 1603,
      "ized": 1604,
      "Ġ.": 1605,
      "cept": 1606,
      "Ġcustom": 1607,
      "ĠFactor": 1608,
      "Ġ36": 1609,
      "mathbf": 1610,
      "Ġderiv": 1611,
      "ffect": 1612,
      "implies": 1613,
      "ata": 1614,
      "clusive": 1615,
      "ying": 1616,
      "Ġteam": 1617,
      "Ġwater": 1618,
      "iles": 1619,
      "Ġhim": 1620,
      "Ġdevelop": 1621,
      "Ġsk": 1622,
      "|{": 1623,
      "Ġlife": 1624,
      "Ġrun": 1625,
      "Ġdeviation": 1626,
      "Ġcomputed": 1627,
      "itten": 1628,
      "))$,": 1629,
      "pen": 1630,
      "ards": 1631,
      "Ġdig": 1632,
      "Ġleft": 1633,
      "48": 1634,
      "Ġcle": 1635,
      "Ġrelations": 1636,
      "Ġlist": 1637,
      "90": 1638,
      "Ġadv": 1639,
      "Ġcou": 1640,
      "Ġapproaches": 1641,
      "ring": 1642,
      "Ġwrite": 1643,
      "Ġpay": 1644,
      "Ġpur": 1645,
      "Ġsupport": 1646,
      "self": 1647,
      "Ġderivatives": 1648,
      "less": 1649,
      "ision": 1650,
      "ĠQ": 1651,
      "Ġaround": 1652,
      "Ġprocess": 1653,
      "Ġcent": 1654,
      "ell": 1655,
      "ash": 1656,
      "75": 1657,
      "Ġline": 1658,
      "Ġplace": 1659,
      "Ġexponential": 1660,
      ".$": 1661,
      "Ġinc": 1662,
      "Ġbig": 1663,
      "Ġincre": 1664,
      "[[": 1665,
      "ank": 1666,
      "Ġunder": 1667,
      "ited": 1668,
      "Ġsolutions": 1669,
      "}*\\": 1670,
      "ier": 1671,
      "ict": 1672,
      "Ġgrow": 1673,
      "lease": 1674,
      "Ġrelationship": 1675,
      "ĠEx": 1676,
      "ients": 1677,
      "32": 1678,
      "Ġdef": 1679,
      "MF": 1680,
      "Ġsmall": 1681,
      "Ġoffer": 1682,
      "Ġlead": 1683,
      "Ġfree": 1684,
      "air": 1685,
      "ought": 1686,
      "Ġwritten": 1687,
      "ĠAs": 1688,
      "Ġ\\\\": 1689,
      "amp": 1690,
      "Ġratio": 1691,
      "Ġmut": 1692,
      "rent": 1693,
      "ooks": 1694,
      "Ġmoney": 1695,
      "Ġcare": 1696,
      "ĠMat": 1697,
      "Ġstill": 1698,
      "Ġfriend": 1699,
      "uc": 1700,
      "Ġavail": 1701,
      "Ġbo": 1702,
      "Ġdenotes": 1703,
      "Ġexclusive": 1704,
      "eterm": 1705,
      "Ġneeds": 1706,
      "ĠThey": 1707,
      "ho": 1708,
      "Ġclass": 1709,
      "iting": 1710,
      "ift": 1711,
      "inant": 1712,
      "Ġaut": 1713,
      "^{(": 1714,
      "mate": 1715,
      ")).": 1716,
      "Which": 1717,
      "Ġdri": 1718,
      "ital": 1719,
      "Ġcommun": 1720,
      "ott": 1721,
      "Ġresult": 1722,
      "bar": 1723,
      "99": 1724,
      "Ġreally": 1725,
      "Ġpost": 1726,
      "roc": 1727,
      "Ġlove": 1728,
      "Ġ35": 1729,
      "ness": 1730,
      "irect": 1731,
      "ec": 1732,
      "Ġopt": 1733,
      "haust": 1734,
      "Ġri": 1735,
      "Ġschool": 1736,
      "alu": 1737,
      "Ġma": 1738,
      "Ġrece": 1739,
      "Ġexhaust": 1740,
      "ility": 1741,
      "Ġhyp": 1742,
      "Ġold": 1743,
      "Ġrest": 1744,
      "Ġpat": 1745,
      "ĠCon": 1746,
      "Ġsolve": 1747,
      "ber": 1748,
      "dg": 1749,
      "Ġsuccessful": 1750,
      "Ġtop": 1751,
      "Ġvariables": 1752,
      "Ġpoints": 1753,
      "Ġgrou": 1754,
      "ĠFind": 1755,
      "Ġ$<<": 1756,
      "Ġshow": 1757,
      "Ġtechn": 1758,
      "Ġobtain": 1759,
      "ases": 1760,
      "Ġsubtract": 1761,
      "Ġfract": 1762,
      "Ġcompany": 1763,
      "det": 1764,
      "$-": 1765,
      "ctions": 1766,
      "Ġfew": 1767,
      "Ġcontinuous": 1768,
      "Ġpub": 1769,
      "ÏĢ": 1770,
      "Ġsom": 1771,
      "Ġtrials": 1772,
      "Ġimport": 1773,
      "Ġinfinity": 1774,
      "42": 1775,
      "Ġgoing": 1776,
      "ival": 1777,
      "ene": 1778,
      "Ġantid": 1779,
      "orem": 1780,
      "Ġantiderivative": 1781,
      "Ġevalu": 1782,
      "]]": 1783,
      "appro": 1784,
      "ross": 1785,
      "Ġmutually": 1786,
      "_{-\\": 1787,
      "iqu": 1788,
      "Ġlot": 1789,
      "rable": 1790,
      "Ġaddition": 1791,
      "omin": 1792,
      "Ġhypot": 1793,
      "els": 1794,
      "Ġexhaustive": 1795,
      "alf": 1796,
      "ĠOn": 1797,
      "Ġavailable": 1798,
      "ling": 1799,
      "Ġfollowing": 1800,
      "Ġamount": 1801,
      "Ġmarket": 1802,
      "Ġgener": 1803,
      "ĠBut": 1804,
      "ern": 1805,
      "Ġprobabilities": 1806,
      "Ġservice": 1807,
      "ames": 1808,
      "Ġintegers": 1809,
      "ious": 1810,
      "ication": 1811,
      "ature": 1812,
      "}^âĪŀ": 1813,
      "Ġapproximation": 1814,
      "\\\\-": 1815,
      "Ġrequire": 1816,
      "Ġproper": 1817,
      "Ġtry": 1818,
      "Ġproject": 1819,
      "enuse": 1820,
      "Ġhypotenuse": 1821,
      "Ġmemb": 1822,
      "ĠÂ": 1823,
      "Ġlear": 1824,
      "^{-\\": 1825,
      "ĠNew": 1826,
      "approx": 1827,
      "70": 1828,
      "ivid": 1829,
      "ee": 1830,
      "$),": 1831,
      "Ġoutcomes": 1832,
      "Ġext": 1833,
      "Ġbuild": 1834,
      "29": 1835,
      "cent": 1836,
      "Ġ29": 1837,
      "ĠCl": 1838,
      "Ġide": 1839,
      "Ġ{\\": 1840,
      "Ġduring": 1841,
      "Ġele": 1842,
      "Ġinterest": 1843,
      "Ġhapp": 1844,
      "ariance": 1845,
      "Ġcommon": 1846,
      "Ġpartic": 1847,
      "ries": 1848,
      "ety": 1849,
      "ivers": 1850,
      "ology": 1851,
      "rightarrow": 1852,
      "ittle": 1853,
      "Ġbook": 1854,
      "iate": 1855,
      "theta": 1856,
      "ĠSince": 1857,
      "Ġdata": 1858,
      "Long": 1859,
      "Ġpoly": 1860,
      "iving": 1861,
      "Ġran": 1862,
      "phi": 1863,
      "Ġfamily": 1864,
      "Ġcap": 1865,
      "ln": 1866,
      "angled": 1867,
      "Ġexperience": 1868,
      "Ġwithout": 1869,
      "Ġdel": 1870,
      "Ġspecial": 1871,
      "Ġdeg": 1872,
      "Ġfour": 1873,
      "ock": 1874,
      "Ġrecip": 1875,
      "Ġ32": 1876,
      "66": 1877,
      "ield": 1878,
      "Ġanother": 1879,
      "Ġmeas": 1880,
      "Longrightarrow": 1881,
      "con": 1882,
      "Ġvert": 1883,
      "Ġhealth": 1884,
      "view": 1885,
      "Ġopen": 1886,
      "44": 1887,
      "Ġsl": 1888,
      "Ġatt": 1889,
      "gs": 1890,
      "ger": 1891,
      "iply": 1892,
      "200": 1893,
      "rit": 1894,
      "ats": 1895,
      "Ġorgan": 1896,
      "Ġ45": 1897,
      "ĠNow": 1898,
      "co": 1899,
      "valu": 1900,
      "Ġfeel": 1901,
      "Ġincluding": 1902,
      "Ġresp": 1903,
      "ils": 1904,
      "ration": 1905,
      "ĠPl": 1906,
      "thing": 1907,
      "gy": 1908,
      "Ġret": 1909,
      "Ġput": 1910,
      "Ġcomposite": 1911,
      "Ġstr": 1912,
      ")}(": 1913,
      ")/((-": 1914,
      "))/": 1915,
      "Ġdra": 1916,
      "Ġable": 1917,
      "fect": 1918,
      "ĠThat": 1919,
      "pend": 1920,
      "here": 1921,
      "Ġsure": 1922,
      "Ġkeep": 1923,
      "Ġprovide": 1924,
      "Ġconsider": 1925,
      "ists": 1926,
      "Ġservices": 1927,
      "Ġcall": 1928,
      "Ġexpand": 1929,
      "Ġthings": 1930,
      "tend": 1931,
      "ically": 1932,
      "Ġpass": 1933,
      "Ġadding": 1934,
      "ward": 1935,
      "ik": 1936,
      "Ġ$\\|": 1937,
      "Binomial": 1938,
      "valuate": 1939,
      "ploy": 1940,
      "Ġcurrent": 1941,
      "Ġconsidering": 1942,
      "Ġprice": 1943,
      "Ġcome": 1944,
      "38": 1945,
      "ather": 1946,
      "Ġgive": 1947,
      "39": 1948,
      "osine": 1949,
      "Ġreciproc": 1950,
      "Ġbre": 1951,
      "oint": 1952,
      "erst": 1953,
      "Ġways": 1954,
      "Ġlittle": 1955,
      "ems": 1956,
      "Ġlight": 1957,
      "Ġperform": 1958,
      "ĠTheorem": 1959,
      "Ġfull": 1960,
      "rol": 1961,
      "Ġpair": 1962,
      "Ġiss": 1963,
      "ĠMatrix": 1964,
      "rigin": 1965,
      "box": 1966,
      "ĠWhen": 1967,
      "Ġcal": 1968,
      "PMF": 1969,
      "nown": 1970,
      "Ġbetter": 1971,
      "Evaluate": 1972,
      "Ġobtained": 1973,
      "Ġroom": 1974,
      "Ġlevel": 1975,
      "Ġeffect": 1976,
      "atch": 1977,
      "Ġintegrable": 1978,
      "Ġimportant": 1979,
      "Ġ((": 1980,
      "You": 1981,
      "zeta": 1982,
      "hemat": 1983,
      "ished": 1984,
      "Ġmet": 1985,
      "Ġsay": 1986,
      "ody": 1987,
      "Ġ$(-": 1988,
      "Ġfive": 1989,
      "ien": 1990,
      "34": 1991,
      "As": 1992,
      "pos": 1993,
      "Ġvertices": 1994,
      "It": 1995,
      "oot": 1996,
      "Ġhead": 1997,
      "Ġmov": 1998,
      "min": 1999,
      "ething": 2000,
      "Ġsal": 2001,
      "Ġgame": 2002,
      "rance": 2003,
      "Ġequality": 2004,
      "Ġonline": 2005,
      "Ġcert": 2006,
      "Determ": 2007,
      "Ġhalf": 2008,
      "Ġspec": 2009,
      "Ġtest": 2010,
      "fficient": 2011,
      ")?": 2012,
      "Ġbased": 2013,
      "Ġmakes": 2014,
      "ument": 2015,
      "aut": 2016,
      "Ġpie": 2017,
      "Ġdenomin": 2018,
      "ris": 2019,
      "Ġfaces": 2020,
      "uss": 2021,
      "ton": 2022,
      ")}$": 2023,
      "Ġmar": 2024,
      "Ġmus": 2025,
      "Ġanal": 2026,
      "Ġ48": 2027,
      "Ġmight": 2028,
      "Ġcomb": 2029,
      "Ġsit": 2030,
      "Ġwithin": 2031,
      "Ġaway": 2032,
      "Ġconf": 2033,
      "37": 2034,
      "Ġbuy": 2035,
      "prod": 2036,
      "oll": 2037,
      "Ġdenominator": 2038,
      "Ġinvest": 2039,
      "known": 2040,
      "oh": 2041,
      "Ġwebs": 2042,
      "ĠBe": 2043,
      "Ġesti": 2044,
      "Ġcour": 2045,
      "meric": 2046,
      ",$": 2047,
      "ention": 2048,
      "Ġlaw": 2049,
      "Ġinf": 2050,
      "Ġdefinition": 2051,
      "Ġequival": 2052,
      "Ġedges": 2053,
      "Ġquestion": 2054,
      "Ġfund": 2055,
      "Ġsomething": 2056,
      "Ġgot": 2057,
      "ĠLe": 2058,
      "Ġaccess": 2059,
      "Ġorigin": 2060,
      "Ġreport": 2061,
      ")}{\\": 2062,
      "rist": 2063,
      "Ġequivalent": 2064,
      "Ġaltern": 2065,
      ")}$.": 2066,
      "Ġration": 2067,
      "oun": 2068,
      "ilon": 2069,
      "Ġhouse": 2070,
      "psilon": 2071,
      "room": 2072,
      "Ġsing": 2073,
      "Ġdirect": 2074,
      "}{-": 2075,
      "Ġspend": 2076,
      "Ġfactorial": 2077,
      "Ġmathemat": 2078,
      "fort": 2079,
      "Ġut": 2080,
      "allest": 2081,
      "ruct": 2082,
      "Ġhard": 2083,
      "ĠWhich": 2084,
      "di": 2085,
      "rand": 2086,
      "duct": 2087,
      "Ġphot": 2088,
      "ĠSeries": 2089,
      "Ġchildren": 2090,
      "man": 2091,
      "ormal": 2092,
      "=\\": 2093,
      "Ġfil": 2094,
      "ental": 2095,
      "Ġcomplete": 2096,
      "Ġsimplify": 2097,
      "Ġ80": 2098,
      "65": 2099,
      "Ġgroup": 2100,
      "Ġexample": 2101,
      "Ġsmallest": 2102,
      "!}\\": 2103,
      "Ġgives": 2104,
      "Ġquality": 2105,
      "ounds": 2106,
      "Ġcov": 2107,
      "Ġnever": 2108,
      "Ġworking": 2109,
      "Ġabs": 2110,
      "Ġperfect": 2111,
      "!$": 2112,
      "Ġbel": 2113,
      "Ġchoose": 2114,
      "Add": 2115,
      "orn": 2116,
      "ĠSh": 2117,
      "Ġ$(\\": 2118,
      "Ġproducts": 2119,
      "izing": 2120,
      "ah": 2121,
      "Ġleast": 2122,
      "Ġrese": 2123,
      "Ġbox": 2124,
      "Ġsell": 2125,
      "rat": 2126,
      "Ġstre": 2127,
      "$:": 2128,
      "ense": 2129,
      "Ġvect": 2130,
      "Ġpop": 2131,
      "Ġtaking": 2132,
      "!$.": 2133,
      "Ġexpl": 2134,
      "work": 2135,
      "Ġmiles": 2136,
      "ither": 2137,
      "Ġwin": 2138,
      "Ġmeet": 2139,
      "Ġmultiple": 2140,
      "ding": 2141,
      "Ġlooking": 2142,
      "Ġchange": 2143,
      "49": 2144,
      "Ġvariance": 2145,
      "Ġcheck": 2146,
      ")*-": 2147,
      ".,": 2148,
      "Ġsatisfying": 2149,
      "Ġtoday": 2150,
      "Ġprofess": 2151,
      "ĠInd": 2152,
      "{(": 2153,
      "aring": 2154,
      "Ġfeet": 2155,
      "Ġgl": 2156,
      "ĠForm": 2157,
      ")(": 2158,
      "ump": 2159,
      "Ġbas": 2160,
      "Ġunderst": 2161,
      "ills": 2162,
      "ĠAmeric": 2163,
      "Ġref": 2164,
      "Ġjob": 2165,
      "|{\\": 2166,
      "Ġmathematical": 2167,
      "Ġfact": 2168,
      "Ġmaking": 2169,
      "ably": 2170,
      "ified": 2171,
      "joy": 2172,
      "Ġoper": 2173,
      "Ġsite": 2174,
      "Ġpract": 2175,
      "Ġvol": 2176,
      "Ġ'": 2177,
      "Ġdg": 2178,
      "Ġstep": 2179,
      "Ġcontain": 2180,
      "ĠSp": 2181,
      "/\\": 2182,
      "rant": 2183,
      "Ġabove": 2184,
      "Ġapplic": 2185,
      "Ġindic": 2186,
      "Ġpresent": 2187,
      "ĠAll": 2188,
      "Ġfood": 2189,
      "omm": 2190,
      "72": 2191,
      "64": 2192,
      "})^": 2193,
      "ium": 2194,
      "stit": 2195,
      "55": 2196,
      "Ġlocal": 2197,
      "Ġunt": 2198,
      "Ġlo": 2199,
      "ior": 2200,
      "By": 2201,
      "Ġsine": 2202,
      "=<<": 2203,
      "ĠAt": 2204,
      "\\]": 2205,
      "iver": 2206,
      "ls": 2207,
      "Ġask": 2208,
      "There": 2209,
      "boxed": 2210,
      "Ġcirc": 2211,
      "Re": 2212,
      "68": 2213,
      "--": 2214,
      "arent": 2215,
      "Ġstarting": 2216,
      "Ġexpanded": 2217,
      "ism": 2218,
      "An": 2219,
      "eter": 2220,
      "Ġnon": 2221,
      "ization": 2222,
      "Eul": 2223,
      "iron": 2224,
      ")!}": 2225,
      "ĠCalculate": 2226,
      "mon": 2227,
      "Ġchar": 2228,
      "Ġpublic": 2229,
      "Ġprom": 2230,
      "ara": 2231,
      "Ġemploy": 2232,
      "Ġinvol": 2233,
      "por": 2234,
      "inder": 2235,
      "ĠSc": 2236,
      "ĠRule": 2237,
      "cing": 2238,
      "iding": 2239,
      "erial": 2240,
      "ĠSe": 2241,
      "otient": 2242,
      "Ġworks": 2243,
      "pri": 2244,
      "ready": 2245,
      "ware": 2246,
      "Ġindivid": 2247,
      "Ġconstants": 2248,
      "Ġcosine": 2249,
      "ĠFunction": 2250,
      "ned": 2251,
      "ĠFormula": 2252,
      "ten": 2253,
      "pping": 2254,
      "Ġallow": 2255,
      "ories": 2256,
      "ĠâĢĺ": 2257,
      "Ġ38": 2258,
      "Ġwebsite": 2259,
      "Ġcalculate": 2260,
      "load": 2261,
      "ieve": 2262,
      "ister": 2263,
      "ored": 2264,
      "Ġunderstand": 2265,
      "ids": 2266,
      "Ġident": 2267,
      "ique": 2268,
      "Ġprime": 2269,
      "agement": 2270,
      "az": 2271,
      "not": 2272,
      "Ġcolle": 2273,
      "Ġvalid": 2274,
      "rack": 2275,
      "!!": 2276,
      "ĠIs": 2277,
      "Ġuntil": 2278,
      "mber": 2279,
      "Ġindust": 2280,
      "Ġimpro": 2281,
      "Ġsubtracting": 2282,
      "aster": 2283,
      "yt": 2284,
      "Ġintern": 2285,
      ")*(": 2286,
      "cel": 2287,
      "illion": 2288,
      "Ġtakes": 2289,
      "ina": 2290,
      "ER": 2291,
      "Ġdeterminant": 2292,
      "Ġalready": 2293,
      "imum": 2294,
      "ared": 2295,
      "ently": 2296,
      "oci": 2297,
      "ission": 2298,
      "Ġ34": 2299,
      "76": 2300,
      "Ġgre": 2301,
      "ode": 2302,
      "Ġutil": 2303,
      "ged": 2304,
      ".\"": 2305,
      "Ġsw": 2306,
      "Ġvisit": 2307,
      "Ġpot": 2308,
      "Ġaccount": 2309,
      "Ġball": 2310,
      "ithm": 2311,
      "Ġcourse": 2312,
      "Ġeasy": 2313,
      "vious": 2314,
      "ĠWh": 2315,
      "Ġdistance": 2316,
      "Ġalong": 2317,
      "96": 2318,
      "Ġmembers": 2319,
      "Ġann": 2320,
      "Ġview": 2321,
      "56": 2322,
      "Ġactiv": 2323,
      "Ġtre": 2324,
      "ocus": 2325,
      "uck": 2326,
      "120": 2327,
      "Ġcook": 2328,
      "ga": 2329,
      "oss": 2330,
      "plication": 2331,
      "Law": 2332,
      "gine": 2333,
      "88": 2334,
      "angent": 2335,
      "ived": 2336,
      "loor": 2337,
      "outh": 2338,
      "Ġdetermined": 2339,
      "Ġenjoy": 2340,
      "iversity": 2341,
      "lor": 2342,
      "yle": 2343,
      "Ġsever": 2344,
      "Ġ33": 2345,
      "ush": 2346,
      "Ġpack": 2347,
      "Ġcoe": 2348,
      "norm": 2349,
      "Ġodd": 2350,
      "Ġrange": 2351,
      "Ġ90": 2352,
      "umber": 2353,
      "ĠCol": 2354,
      "vent": 2355,
      "!\\": 2356,
      "vers": 2357,
      "let": 2358,
      "To": 2359,
      "Ġfriends": 2360,
      "ability": 2361,
      "Ġdeta": 2362,
      "((-": 2363,
      "Ġair": 2364,
      "Ġ$-\\": 2365,
      "Ġvide": 2366,
      ")/\\": 2367,
      "ĠWith": 2368,
      "Ġ31": 2369,
      "Ġname": 2370,
      "Ġcontrol": 2371,
      "ĠTe": 2372,
      "ised": 2373,
      "ĠAd": 2374,
      "Ġpurch": 2375,
      "Ġtreat": 2376,
      "Ġhaving": 2377,
      "ĠMan": 2378,
      "ĠUS": 2379,
      "Ġage": 2380,
      "Ġnight": 2381,
      "Ġconc": 2382,
      "ci": 2383,
      "fe": 2384,
      "Ġtable": 2385,
      "Ġcovariance": 2386,
      "Ġnotice": 2387,
      "ope": 2388,
      "73": 2389,
      "}}$.": 2390,
      "icle": 2391,
      "Ġwom": 2392,
      "lish": 2393,
      "ury": 2394,
      "Ġpage": 2395,
      "Ġmaterial": 2396,
      "olute": 2397,
      "Ġshort": 2398,
      "Ġ[[": 2399,
      "Ġoften": 2400,
      "raph": 2401,
      "way": 2402,
      "Ġdev": 2403,
      "Ġcreate": 2404,
      "ĠPh": 2405,
      "of": 2406,
      "Ġgetting": 2407,
      "78": 2408,
      "Ġbene": 2409,
      "ype": 2410,
      "Ġbooks": 2411,
      "ĠInequality": 2412,
      "Ġ($": 2413,
      "ortun": 2414,
      "ĠChrist": 2415,
      "Ġhist": 2416,
      "ĠOne": 2417,
      "ourt": 2418,
      "orth": 2419,
      "Ġpolyhed": 2420,
      "imens": 2421,
      "ser": 2422,
      "Ġpast": 2423,
      "Ġsy": 2424,
      "Ġmultiply": 2425,
      "Ġ39": 2426,
      "Ġcover": 2427,
      "Ġbeaut": 2428,
      "ĠBl": 2429,
      "}^{": 2430,
      "Ġtem": 2431,
      "Ġlog": 2432,
      "Ġel": 2433,
      "Ġdegree": 2434,
      "Ġcontact": 2435,
      "ging": 2436,
      "Ġinclude": 2437,
      "Ġpersonal": 2438,
      "plement": 2439,
      "Com": 2440,
      "31": 2441,
      "ots": 2442,
      "54": 2443,
      "St": 2444,
      "Ġsingle": 2445,
      "rid": 2446,
      "pped": 2447,
      "Ġpercent": 2448,
      "Ġleg": 2449,
      "}^{-": 2450,
      "Ġfocus": 2451,
      "Ġexponentials": 2452,
      "Ġfun": 2453,
      "Ġhig": 2454,
      "ĠCan": 2455,
      "Ġfav": 2456,
      "ney": 2457,
      "Ġbreak": 2458,
      "Ġdone": 2459,
      "Ġwhy": 2460,
      "ips": 2461,
      "Ġdistrib": 2462,
      "Ġkind": 2463,
      "Ġabsolute": 2464,
      "Ġenough": 2465,
      "Ġeither": 2466,
      "Ġresearch": 2467,
      "Ġmove": 2468,
      "Ġcosts": 2469,
      "ording": 2470,
      "Ġcommunity": 2471,
      "Ġrep": 2472,
      "Ġcertain": 2473,
      "uro": 2474,
      "Ġ70": 2475,
      "Ġagainst": 2476,
      "sc": 2477,
      "Ġelect": 2478,
      "Ġsoft": 2479,
      "Ġred": 2480,
      "med": 2481,
      "ĠÂ±": 2482,
      "ĠTra": 2483,
      "Ġfar": 2484,
      "Ġland": 2485,
      "cluding": 2486,
      "side": 2487,
      "Ġhum": 2488,
      "ĠRes": 2489,
      "Ġturn": 2490,
      "Ġclean": 2491,
      "Ġdefine": 2492,
      "Ġbegin": 2493,
      "ches": 2494,
      "Ġselect": 2495,
      "Ġspace": 2496,
      "ted": 2497,
      "Ġbenef": 2498,
      "ured": 2499,
      "ĠHowever": 2500,
      "Ġarg": 2501,
      "Ġdivide": 2502,
      "Ġgover": 2503,
      "Ġrelates": 2504,
      "ores": 2505,
      "ency": 2506,
      "Ġtend": 2507,
      "Ġwalk": 2508,
      "ĠCo": 2509,
      "viron": 2510,
      "iff": 2511,
      "Ġthing": 2512,
      "omet": 2513,
      "Ġmonths": 2514,
      "Ġentire": 2515,
      "Ġmeasures": 2516,
      "arly": 2517,
      "jor": 2518,
      "Ġspecific": 2519,
      "atures": 2520,
      "nect": 2521,
      "Ġsug": 2522,
      "circ": 2523,
      "urs": 2524,
      "ĠCent": 2525,
      "Ġproperty": 2526,
      "Ġ42": 2527,
      "Ġconditional": 2528,
      "verse": 2529,
      "ok": 2530,
      "Ġhot": 2531,
      "Ġbecome": 2532,
      "âĢ¦": 2533,
      "Ġconstant": 2534,
      "*-": 2535,
      "84": 2536,
      "DF": 2537,
      "Ġ37": 2538,
      "lock": 2539,
      "ĠThese": 2540,
      "Ġadded": 2541,
      "Ġtyp": 2542,
      "Ġtook": 2543,
      "Ġlow": 2544,
      "Ġredu": 2545,
      "racter": 2546,
      "range": 2547,
      "oes": 2548,
      "pecial": 2549,
      "Ġbr": 2550,
      ",âĢĿ": 2551,
      "nment": 2552,
      "ĠEn": 2553,
      "ination": 2554,
      "Ġes": 2555,
      "mail": 2556,
      "Ġopportun": 2557,
      "Ġnet": 2558,
      "ĠComp": 2559,
      "]$.": 2560,
      "Th": 2561,
      "Ġmid": 2562,
      "|^{": 2563,
      "Ġwhole": 2564,
      "))/(": 2565,
      "Ġfractions": 2566,
      "46": 2567,
      "Ġvectors": 2568,
      "âĢľ": 2569,
      "Ġunknown": 2570,
      "95": 2571,
      "ront": 2572,
      "Ġste": 2573,
      "AR": 2574,
      "Ġcut": 2575,
      "Ġsix": 2576,
      "by": 2577,
      "Ġtravel": 2578,
      "Ġthought": 2579,
      "Ġacross": 2580,
      "hor": 2581,
      "ĠJoh": 2582,
      "Ġpolyhedron": 2583,
      "Ġens": 2584,
      "Ġshare": 2585,
      "ĠCar": 2586,
      "lent": 2587,
      "urther": 2588,
      "Ġdevelopment": 2589,
      "\\,\\": 2590,
      "rap": 2591,
      "ĠAfter": 2592,
      "aken": 2593,
      "onder": 2594,
      "Ġbelow": 2595,
      "ansion": 2596,
      "Ġprot": 2597,
      "ane": 2598,
      "!}{": 2599,
      "77": 2600,
      "Ġbody": 2601,
      "Ġothers": 2602,
      "ĠOur": 2603,
      "Ġcharacter": 2604,
      "'ll": 2605,
      "Ġbecomes": 2606,
      "Ġsocial": 2607,
      "Ġseveral": 2608,
      "Ġmusic": 2609,
      "Ġitems": 2610,
      "Ġquick": 2611,
      "ratic": 2612,
      "aces": 2613,
      "Ġkey": 2614,
      "ĠCons": 2615,
      "Ġunits": 2616,
      "ĠGod": 2617,
      "iful": 2618,
      "ript": 2619,
      "Ġstarted": 2620,
      "'re": 2621,
      "''(": 2622,
      "ners": 2623,
      "Ġonce": 2624,
      "uture": 2625,
      "Ġgraph": 2626,
      "enn": 2627,
      "pr": 2628,
      ")*(-": 2629,
      "Ġtwice": 2630,
      "Ġeduc": 2631,
      "ifferent": 2632,
      "Ġpaint": 2633,
      "ones": 2634,
      "Ġoriginal": 2635,
      "Ġbott": 2636,
      "Ġca": 2637,
      "Ġ120": 2638,
      "98": 2639,
      "ĠQu": 2640,
      "anies": 2641,
      "IN": 2642,
      "Ġdivision": 2643,
      "Ġet": 2644,
      "Ġmeth": 2645,
      "Ġbed": 2646,
      "overline": 2647,
      "Ġvers": 2648,
      "So": 2649,
      "Ġ\\[": 2650,
      "Ġseason": 2651,
      "Ġpick": 2652,
      "ordin": 2653,
      "Ġcand": 2654,
      "Ġris": 2655,
      "Ġlive": 2656,
      "ume": 2657,
      "Ġmain": 2658,
      ".\\]": 2659,
      "Ġcustomers": 2660,
      "ateg": 2661,
      "}*(": 2662,
      "Ġparticular": 2663,
      "uf": 2664,
      "Ġrule": 2665,
      "Ġtool": 2666,
      "Ġposition": 2667,
      "ĠâĢĶ": 2668,
      "sh": 2669,
      "Ġcompet": 2670,
      "vironment": 2671,
      "Ġbring": 2672,
      "Ġcountry": 2673,
      "Ġcard": 2674,
      "Ġdeal": 2675,
      "Ġbit": 2676,
      "ĠUniversity": 2677,
      "race": 2678,
      "Ġinches": 2679,
      "Ġdivis": 2680,
      "Ġcity": 2681,
      "}(\\": 2682,
      "unch": 2683,
      "^-": 2684,
      "mand": 2685,
      "Ġfield": 2686,
      "aim": 2687,
      "Ġimp": 2688,
      "Ġmajor": 2689,
      "Ġdoing": 2690,
      "Ġwind": 2691,
      "Ġever": 2692,
      "Ġreason": 2693,
      "Ġbiggest": 2694,
      "conom": 2695,
      "Ġsimple": 2696,
      "Ġstore": 2697,
      "Ġmind": 2698,
      "Ġport": 2699,
      "âĢĶ": 2700,
      "Ġmen": 2701,
      "Ġoffers": 2702,
      "ĠNo": 2703,
      "elta": 2704,
      "Ġdoll": 2705,
      "sel": 2706,
      "par": 2707,
      "umer": 2708,
      "Ġ44": 2709,
      "maz": 2710,
      "Ġce": 2711,
      "Ġreview": 2712,
      "Ġquestions": 2713,
      "ube": 2714,
      "Ġsays": 2715,
      "Ġwon": 2716,
      "####": 2717,
      "Ġtell": 2718,
      "Ġla": 2719,
      "yl": 2720,
      "Ġparent": 2721,
      "ilt": 2722,
      "Ġweeks": 2723,
      "Ġutilizing": 2724,
      "Ġwa": 2725,
      "Ġexpansion": 2726,
      "52": 2727,
      "resp": 2728,
      "Ġbar": 2729,
      "Ġdenote": 2730,
      "Ġflow": 2731,
      "Ġbag": 2732,
      "'m": 2733,
      "67": 2734,
      "Ġremaining": 2735,
      "rho": 2736,
      "Ġtype": 2737,
      "Ġreciprocals": 2738,
      "ference": 2739,
      "Ġfurther": 2740,
      "33333333": 2741,
      "=-": 2742,
      "Ġbro": 2743,
      "Ġrightarrow": 2744,
      "Ġplus": 2745,
      "Ġbuilding": 2746,
      "Ġindicating": 2747,
      "Ġfraction": 2748,
      "Ġweight": 2749,
      "Ġinit": 2750,
      "Ġdetermine": 2751,
      "ster": 2752,
      "Ġfuture": 2753,
      "Ġfactors": 2754,
      "urance": 2755,
      "Ġspent": 2756,
      "anks": 2757,
      "where": 2758,
      "43": 2759,
      "Ġcalled": 2760,
      "imal": 2761,
      "dh": 2762,
      "ograph": 2763,
      "ĠMy": 2764,
      "urity": 2765,
      "Ġdigit": 2766,
      "itc": 2767,
      ")}$,": 2768,
      "Ġindustry": 2769,
      "Ġpict": 2770,
      "ĠNe": 2771,
      "Ġtrad": 2772,
      "Ġneeded": 2773,
      "ired": 2774,
      "ero": 2775,
      "Ġconditions": 2776,
      "Ġactually": 2777,
      "place": 2778,
      "Ġgames": 2779,
      "Ġcompanies": 2780,
      "ball": 2781,
      "Ġwhite": 2782,
      "Ġlargest": 2783,
      "ulti": 2784,
      "utive": 2785,
      "Determine": 2786,
      "Ġbought": 2787,
      "Ġrecomm": 2788,
      "Ġtalk": 2789,
      "var": 2790,
      "acks": 2791,
      "Ġtax": 2792,
      "Ġrecommend": 2793,
      "Ġcolor": 2794,
      "Ġmom": 2795,
      "Ġvideo": 2796,
      "ĠBinomial": 2797,
      "Ġsold": 2798,
      "Ġpriv": 2799,
      "Ġpounds": 2800,
      "Addition": 2801,
      "aff": 2802,
      "Ġneg": 2803,
      "ĠComm": 2804,
      "85": 2805,
      "Ġess": 2806,
      "AT": 2807,
      "Ġwonder": 2808,
      "Ġstory": 2809,
      "Ġeverything": 2810,
      "wards": 2811,
      "Ġresults": 2812,
      "Ġsquared": 2813,
      "Ġ2018": 2814,
      "most": 2815,
      "iod": 2816,
      "respond": 2817,
      "ĠApp": 2818,
      "excluding": 2819,
      "How": 2820,
      "ĠMay": 2821,
      "play": 2822,
      "plex": 2823,
      "Ġmax": 2824,
      "aught": 2825,
      "ON": 2826,
      "Ġspeed": 2827,
      "ley": 2828,
      "Ġprint": 2829,
      "ES": 2830,
      "Ġcamp": 2831,
      "omega": 2832,
      "chi": 2833,
      "isson": 2834,
      "rop": 2835,
      "Ġyoung": 2836,
      "Ġoffic": 2837,
      "Ġclose": 2838,
      "Ġ64": 2839,
      "Ġcollect": 2840,
      "Ġdou": 2841,
      "Ġtangent": 2842,
      "Ex": 2843,
      "bo": 2844,
      "iled": 2845,
      "Ġdoesn": 2846,
      "Ġaddress": 2847,
      "Ġstay": 2848,
      "Ġwent": 2849,
      "Ġ$|": 2850,
      "Ġfinal": 2851,
      "Ġallows": 2852,
      "Ġlearn": 2853,
      "Pro": 2854,
      "Ġremainder": 2855,
      "Ġmag": 2856,
      "Ġthough": 2857,
      "arthe": 2858,
      "Ġcorrespond": 2859,
      "imensional": 2860,
      "Ġmaint": 2861,
      "asing": 2862,
      "icy": 2863,
      "adratic": 2864,
      "Ġevaluating": 2865,
      "delta": 2866,
      "len": 2867,
      "Ġdidn": 2868,
      "Ġnumer": 2869,
      "63": 2870,
      "psi": 2871,
      "Ġbrand": 2872,
      "PDF": 2873,
      "150": 2874,
      "ters": 2875,
      "Ġdr": 2876,
      "oisson": 2877,
      "'ve": 2878,
      "ams": 2879,
      "irm": 2880,
      "Ġfeatures": 2881,
      "une": 2882,
      "Ġbeautiful": 2883,
      "varphi": 2884,
      "Ġener": 2885,
      "osp": 2886,
      "ĠOr": 2887,
      "hers": 2888,
      "Ġjo": 2889,
      "Ġmillion": 2890,
      "Ġtaken": 2891,
      "Ġgreater": 2892,
      "bal": 2893,
      "uff": 2894,
      "varthe": 2895,
      "ledge": 2896,
      "vartheta": 2897,
      "ĠHere": 2898,
      "ply": 2899,
      "Ġ75": 2900,
      "\\,": 2901,
      "Ġcame": 2902,
      "Ġquotient": 2903,
      "chan": 2904,
      "ource": 2905,
      "Ġfinan": 2906,
      "ĠBy": 2907,
      "47": 2908,
      "ising": 2909,
      "cks": 2910,
      "Ġrespons": 2911,
      "Ġareas": 2912,
      "rate": 2913,
      "ĠAr": 2914,
      "dimensional": 2915,
      "Ġstrong": 2916,
      "cle": 2917,
      "Ġchalle": 2918,
      "ering": 2919,
      "On": 2920,
      "Ġrequired": 2921,
      "ulation": 2922,
      "}\\,\\": 2923,
      "Ġcontent": 2924,
      "ites": 2925,
      "ural": 2926,
      "Ġelements": 2927,
      "Ġheart": 2928,
      "Ġ[": 2929,
      "Ġsearch": 2930,
      "Ġey": 2931,
      "Ġprofessional": 2932,
      "Eulers": 2933,
      "Ġamong": 2934,
      "Ġ49": 2935,
      "ĠMar": 2936,
      "Ġtechnology": 2937,
      "Ġdiscuss": 2938,
      "ources": 2939,
      "irt": 2940,
      "Ġpaper": 2941,
      "Ġknown": 2942,
      "Ġrele": 2943,
      "Ġenvironment": 2944,
      "AN": 2945,
      "ĠJohn": 2946,
      "ogn": 2947,
      "iter": 2948,
      "Ġplease": 2949,
      "uly": 2950,
      "Ġmot": 2951,
      "Ġfavor": 2952,
      "Ġmess": 2953,
      "Ġenc": 2954,
      "Ġcred": 2955,
      "57": 2956,
      "Ġdownload": 2957,
      "Ġcra": 2958,
      "Ġinner": 2959,
      "Ġblog": 2960,
      "Ġpress": 2961,
      "ĠIntern": 2962,
      "Ġargument": 2963,
      "})$.": 2964,
      "ĠSub": 2965,
      "Ġconnect": 2966,
      "Ġdue": 2967,
      "ford": 2968,
      "Ġreturn": 2969,
      "Ġwomen": 2970,
      "Ġtraining": 2971,
      "lished": 2972,
      "ont": 2973,
      "att": 2974,
      "na": 2975,
      "ino": 2976,
      "Ġbi": 2977,
      "Ġsquares": 2978,
      "Ġunique": 2979,
      "ember": 2980,
      "Ġwar": 2981,
      "Ġreceived": 2982,
      "Ġearly": 2983,
      "Ġweb": 2984,
      "Ġpow": 2985,
      "Ġprevious": 2986,
      "Ġwall": 2987,
      "Ġpages": 2988,
      "Ġlater": 2989,
      "ourth": 2990,
      "ibility": 2991,
      "Ġstudy": 2992,
      "Ġhappen": 2993,
      "Ġyet": 2994,
      "Ġfoot": 2995,
      "Ġcreat": 2996,
      "eb": 2997,
      "Ġcenter": 2998,
      "ĠFin": 2999,
      "Ġsitu": 3000,
      "Ġ56": 3001,
      "Ġgovernment": 3002,
      "ences": 3003,
      "olate": 3004,
      "Ġblue": 3005,
      "ĠGiven": 3006,
      "Ġtick": 3007,
      "58": 3008,
      "Ġperiod": 3009,
      "resh": 3010,
      "Ġimprove": 3011,
      "500": 3012,
      "Ġalternates": 3013,
      "Ġnews": 3014,
      "Ġpieces": 3015,
      "Ġwhether": 3016,
      "amental": 3017,
      "itor": 3018,
      "He": 3019,
      "Ġmanagement": 3020,
      "Ġeconom": 3021,
      "Ġfre": 3022,
      "Ġscre": 3023,
      ")**": 3024,
      "Ġblack": 3025,
      "Ġvarious": 3026,
      "face": 3027,
      "Ġlab": 3028,
      "pecially": 3029,
      "Ġestimation": 3030,
      "300": 3031,
      "come": 3032,
      "Ġer": 3033,
      "Ġworth": 3034,
      "Ġliving": 3035,
      ",\"": 3036,
      "nu": 3037,
      "ians": 3038,
      "Ġconsum": 3039,
      "onic": 3040,
      "df": 3041,
      "Ġissues": 3042,
      "Ġmach": 3043,
      "oon": 3044,
      "ĠServ": 3045,
      "Ġcup": 3046,
      "lex": 3047,
      "Ġindividual": 3048,
      "Ġmanag": 3049,
      "ĠMed": 3050,
      "))}": 3051,
      "ze": 3052,
      "ĠEuro": 3053,
      "af": 3054,
      "Ġupd": 3055,
      "Ġhope": 3056,
      "Ġphys": 3057,
      "Ġfa": 3058,
      "ĠEach": 3059,
      "tau": 3060,
      "ately": 3061,
      "tead": 3062,
      "Ġstra": 3063,
      "Ġdesc": 3064,
      "Ġtas": 3065,
      "Ġaf": 3066,
      "Ġouter": 3067,
      "Ġcustomer": 3068,
      "Ġwriting": 3069,
      "Ġfish": 3070,
      "Ġeat": 3071,
      "olution": 3072,
      "Ġinside": 3073,
      "ights": 3074,
      "ires": 3075,
      "Ġcards": 3076,
      "ysis": 3077,
      "Ġenergy": 3078,
      "Ġgreen": 3079,
      "Ġparticip": 3080,
      "ĠWor": 3081,
      "ww": 3082,
      "Ġpaid": 3083,
      "Ġsuper": 3084,
      "Ġgir": 3085,
      "Ġwide": 3086,
      "Ġadditional": 3087,
      "stitute": 3088,
      "Ġreceive": 3089,
      "ĠChe": 3090,
      "}^-": 3091,
      "Ġexperien": 3092,
      "Ġcult": 3093,
      "|$.": 3094,
      "ĠAmerican": 3095,
      "Ġparty": 3096,
      "lling": 3097,
      "ufact": 3098,
      "Ġmil": 3099,
      "ifferentiate": 3100,
      "ensive": 3101,
      "wr": 3102,
      "Ġ55": 3103,
      "ruction": 3104,
      "Ġoptions": 3105,
      "Ġ54": 3106,
      "Ġvary": 3107,
      "Ġaud": 3108,
      "Ġoffice": 3109,
      "\\[": 3110,
      "ĠSimplify": 3111,
      "Ġmor": 3112,
      "Ġidea": 3113,
      "Ġeg": 3114,
      "Ġ46": 3115,
      "ĠGu": 3116,
      "enc": 3117,
      "book": 3118,
      "Ġincrease": 3119,
      "eral": 3120,
      "ĠMe": 3121,
      "Ġproblems": 3122,
      "Ġperformance": 3123,
      "Ġdraw": 3124,
      "Ġtext": 3125,
      "Ġface": 3126,
      "vare": 3127,
      "Ġplug": 3128,
      "idence": 3129,
      "92": 3130,
      "ĠEng": 3131,
      "Ġmiss": 3132,
      "Ġbinomial": 3133,
      "arithm": 3134,
      "mm": 3135,
      "Ġradi": 3136,
      "Ġdiff": 3137,
      "epsilon": 3138,
      "Ġfront": 3139,
      "Ġded": 3140,
      "Ġnear": 3141,
      "Ġsales": 3142,
      "Ġcannot": 3143,
      "Ġdoc": 3144,
      "Ġnecess": 3145,
      "urch": 3146,
      "((": 3147,
      "Ġwords": 3148,
      "Ġgoes": 3149,
      "Ġ52": 3150,
      "Ġsomeone": 3151,
      "varepsilon": 3152,
      "Ġstaff": 3153,
      "Ġmedia": 3154,
      "rict": 3155,
      "Ġregular": 3156,
      "ators": 3157,
      "Ġcorre": 3158,
      "reg": 3159,
      "Ġgall": 3160,
      "Ġexc": 3161,
      "ai": 3162,
      "ĠPart": 3163,
      "hing": 3164,
      "Ġwants": 3165,
      "Ġreciprocal": 3166,
      "Ġseen": 3167,
      "Ġ72": 3168,
      "Ġrecord": 3169,
      "Ġassist": 3170,
      ")!\\": 3171,
      "tt": 3172,
      "OR": 3173,
      "Ġhuman": 3174,
      "Ġphone": 3175,
      "ances": 3176,
      "ĠHis": 3177,
      "rown": 3178,
      "41": 3179,
      "Ġlov": 3180,
      "Ġhistory": 3181,
      "ĠDo": 3182,
      "AC": 3183,
      "Ġensure": 3184,
      "Ġperm": 3185,
      "ried": 3186,
      "Ġcorresponding": 3187,
      "Ġpotential": 3188,
      "Ġauthor": 3189,
      "Ġextra": 3190,
      "Ġdam": 3191,
      "Ġcell": 3192,
      "obile": 3193,
      ");": 3194,
      "Ġach": 3195,
      "yn": 3196,
      "Ġclaim": 3197,
      "Ġapply": 3198,
      "uct": 3199,
      "ĠAss": 3200,
      "Ġbir": 3201,
      "Ġprovided": 3202,
      "Ġef": 3203,
      "selves": 3204,
      "Ġdeb": 3205,
      "astic": 3206,
      "Ġincludes": 3207,
      "ĠMic": 3208,
      "Ġfourth": 3209,
      "97": 3210,
      "icult": 3211,
      "Ġdesigned": 3212,
      "Ġinstall": 3213,
      "??": 3214,
      "Ġemail": 3215,
      "ched": 3216,
      "pper": 3217,
      "Ġcurrently": 3218,
      "ees": 3219,
      "Ġsuggest": 3220,
      "dle": 3221,
      "Ġprep": 3222,
      "Ġgets": 3223,
      "ests": 3224,
      "though": 3225,
      "ĠSimplifying": 3226,
      "Ġfollows": 3227,
      "oods": 3228,
      "bles": 3229,
      "rees": 3230,
      "Ġexist": 3231,
      "Ġdepend": 3232,
      "ili": 3233,
      "Ġlat": 3234,
      "Ġsche": 3235,
      "Ġfinite": 3236,
      "Ġdeliver": 3237,
      "Ġeveryone": 3238,
      "Ġregard": 3239,
      "Ġcompl": 3240,
      "Ġ150": 3241,
      "Ġpan": 3242,
      "ilar": 3243,
      "ĠÏĢ": 3244,
      "Ġbelieve": 3245,
      "Ġwatch": 3246,
      "Ġquite": 3247,
      "Ġengine": 3248,
      "Work": 3249,
      "itted": 3250,
      "ĠYour": 3251,
      "ĠJan": 3252,
      "Ġago": 3253,
      "cer": 3254,
      "ony": 3255,
      "Ġattend": 3256,
      "Ġdigits": 3257,
      "go": 3258,
      "Ġbeh": 3259,
      "tee": 3260,
      "Ġfilm": 3261,
      "Ġtends": 3262,
      "Ġsignific": 3263,
      "Ġheight": 3264,
      "Ġsoftware": 3265,
      "Ġsimply": 3266,
      "Ġdistributes": 3267,
      "))\\": 3268,
      "Ġsequ": 3269,
      "ĠDes": 3270,
      "}{(-": 3271,
      "Consider": 3272,
      "li": 3273,
      "Ġplant": 3274,
      "ĠUnited": 3275,
      "91": 3276,
      "ĠAdd": 3277,
      "Ġhost": 3278,
      "ĠArt": 3279,
      "Ġgave": 3280,
      "Ġfinancial": 3281,
      "Ġobject": 3282,
      "Ġexpect": 3283,
      "Ġroad": 3284,
      "ivide": 3285,
      "ĠCity": 3286,
      "Ġveh": 3287,
      "Ġsystems": 3288,
      "inks": 3289,
      "ĠEurope": 3290,
      "Ġsummation": 3291,
      "itchen": 3292,
      "Ġround": 3293,
      "Ġfore": 3294,
      "time": 3295,
      "Ġespecially": 3296,
      "aching": 3297,
      "che": 3298,
      "Ġcircle": 3299,
      "rices": 3300,
      "Ġful": 3301,
      "Ġglo": 3302,
      "Ġleav": 3303,
      "ĠFirst": 3304,
      "Ġkids": 3305,
      "nov": 3306,
      "}}$": 3307,
      "Ġsave": 3308,
      "ĠMr": 3309,
      "))**": 3310,
      "Ġcrit": 3311,
      "ĠWest": 3312,
      "Ġhold": 3313,
      "Ġprotect": 3314,
      "Complex": 3315,
      "erv": 3316,
      "Ġsend": 3317,
      "})\\": 3318,
      "Ġvolume": 3319,
      "Ġmodel": 3320,
      "aint": 3321,
      "Ġpark": 3322,
      "Determinant": 3323,
      "BC": 3324,
      "ille": 3325,
      "Ġyourself": 3326,
      "ctor": 3327,
      "Ġfloor": 3328,
      "Ġanything": 3329,
      "Ġsent": 3330,
      "ĠSchool": 3331,
      "AS": 3332,
      "Ġetc": 3333,
      "nes": 3334,
      "rug": 3335,
      "128": 3336,
      "Ġclear": 3337,
      "Ġtrip": 3338,
      "ki": 3339,
      "Ġfit": 3340,
      "Ġdifficult": 3341,
      "ung": 3342,
      "Ġknowledge": 3343,
      "Divide": 3344,
      "Ġsolved": 3345,
      "Ġapproximate": 3346,
      "Ġstudent": 3347,
      "Ġlikely": 3348,
      "Ġapplication": 3349,
      "Ġcouple": 3350,
      "Ġlay": 3351,
      "Ġself": 3352,
      "rr": 3353,
      "51": 3354,
      "Ġ2017": 3355,
      "ED": 3356,
      "ief": 3357,
      "ĠAust": 3358,
      "Ġinsurance": 3359,
      "acy": 3360,
      "Ġclients": 3361,
      "Ġpar": 3362,
      "Ġfast": 3363,
      "Ġgift": 3364,
      "ĠCount": 3365,
      "do": 3366,
      "Ġdollars": 3367,
      "ĠProduct": 3368,
      "'''": 3369,
      "Ġcreated": 3370,
      "oid": 3371,
      "Ġtradition": 3372,
      "rie": 3373,
      "81": 3374,
      "Ġcomfort": 3375,
      "Ġideas": 3376,
      "Ġrecogn": 3377,
      "Ġsle": 3378,
      "âĢĵ": 3379,
      "}\\,": 3380,
      "gra": 3381,
      "Ġenter": 3382,
      "Ġ47": 3383,
      "angu": 3384,
      "Ġchanges": 3385,
      "_{-": 3386,
      "Ġalmost": 3387,
      "Ġpopular": 3388,
      "itch": 3389,
      "Ġstyle": 3390,
      "Ġstat": 3391,
      "ĠCal": 3392,
      "Ġtrack": 3393,
      "ĠTw": 3394,
      "ese": 3395,
      "Ġlonger": 3396,
      "Ġones": 3397,
      "Ġappear": 3398,
      "Ġsoon": 3399,
      "Ġmanufact": 3400,
      "Ġobser": 3401,
      "Ġmultiplication": 3402,
      ")]": 3403,
      "Ġfire": 3404,
      "Ġrow": 3405,
      "180": 3406,
      "Ġmatter": 3407,
      "Ġdrive": 3408,
      "Ġrunning": 3409,
      "Ġfall": 3410,
      "Ġforward": 3411,
      "Ġlink": 3412,
      "aced": 3413,
      "ification": 3414,
      "Ġhowever": 3415,
      "xy": 3416,
      "nges": 3417,
      "Ġtrying": 3418,
      "Ġautom": 3419,
      "Ġanalysis": 3420,
      "ĠMin": 3421,
      "Ġsubject": 3422,
      "94": 3423,
      "))!": 3424,
      "Ġparts": 3425,
      "Ġsho": 3426,
      "Ġ300": 3427,
      "ret": 3428,
      "ĠMark": 3429,
      "Ġthroughout": 3430,
      "Ġnetwork": 3431,
      "leb": 3432,
      "Ġmatrices": 3433,
      ")!}$.": 3434,
      "Ġtur": 3435,
      "Ġoil": 3436,
      "Ġswe": 3437,
      "Ġplayers": 3438,
      "ipment": 3439,
      "IS": 3440,
      "ĠSouth": 3441,
      "Ġuser": 3442,
      "etic": 3443,
      "EN": 3444,
      "Ġdetails": 3445,
      "ux": 3446,
      "Ã©": 3447,
      "Ġready": 3448,
      "Ġimpact": 3449,
      "Ġstruct": 3450,
      "Ġsignificant": 3451,
      "Ġsecurity": 3452,
      "Ġamaz": 3453,
      "$?": 3454,
      "put": 3455,
      "Ġseem": 3456,
      "osed": 3457,
      "Ġcontract": 3458,
      "Ġjour": 3459,
      "itting": 3460,
      "Ġpowers": 3461,
      "Ġlearning": 3462,
      "Ġchoice": 3463,
      "Ġsimpl": 3464,
      "400": 3465,
      "aning": 3466,
      "Ġhigher": 3467,
      "lection": 3468,
      "ĠPri": 3469,
      "ĠNorth": 3470,
      "ultiply": 3471,
      "Ġ43": 3472,
      "Ġagree": 3473,
      "Ġappe": 3474,
      "arter": 3475,
      "Ġlocated": 3476,
      "Ġoutside": 3477,
      "93": 3478,
      "Ġ41": 3479,
      "Ġrisk": 3480,
      "Ġver": 3481,
      "Ġcontinue": 3482,
      "Ġsafe": 3483,
      "ĠSim": 3484,
      "Ġwood": 3485,
      "Ġsimilar": 3486,
      "anced": 3487,
      "Ġcoll": 3488,
      "Ġsale": 3489,
      "Ġissue": 3490,
      "ilities": 3491,
      "Ġcontrib": 3492,
      "ĠState": 3493,
      "bor": 3494,
      "Ġworked": 3495,
      ".âĢĿ": 3496,
      "aily": 3497,
      "rated": 3498,
      "arden": 3499,
      "ĠNormal": 3500,
      "IT": 3501,
      "Ġground": 3502,
      "ream": 3503,
      "dj": 3504,
      "Ġbad": 3505,
      "Ġsepar": 3506,
      "Ġopportunity": 3507,
      "Ġrewr": 3508,
      "Ġfeature": 3509,
      "ĠUs": 3510,
      "Ġchang": 3511,
      "Ġwanted": 3512,
      "Ġ2019": 3513,
      "Ġfig": 3514,
      "Ġpurchase": 3515,
      "sp": 3516,
      "Ġmember": 3517,
      "sec": 3518,
      "Ġinfl": 3519,
      "Ġremov": 3520,
      "Ġelse": 3521,
      "Ġprote": 3522,
      "Ġ180": 3523,
      "ude": 3524,
      "Ġimage": 3525,
      "Ġoption": 3526,
      "Ġclick": 3527,
      "Ġusually": 3528,
      "Ġtreatment": 3529,
      "Ġreading": 3530,
      "Ġmem": 3531,
      "ĠBar": 3532,
      "ĠRo": 3533,
      "))/((-": 3534,
      "Ġbra": 3535,
      "Wh": 3536,
      "ĠNational": 3537,
      "Ġexcel": 3538,
      "ĠPol": 3539,
      "ror": 3540,
      "uge": 3541,
      "Ġskin": 3542,
      "back": 3543,
      "Ġestab": 3544,
      "Ġusers": 3545,
      "}.$": 3546,
      "Ġgeneral": 3547,
      "Ġcross": 3548,
      "ĠVal": 3549,
      "Ġinitial": 3550,
      "Ġrather": 3551,
      "Ġbuilt": 3552,
      "ape": 3553,
      "62": 3554,
      "point": 3555,
      "Ġinde": 3556,
      "ĠNot": 3557,
      "Ġ2016": 3558,
      "Ġeng": 3559,
      "istic": 3560,
      "Ġnice": 3561,
      "Ġstri": 3562,
      "Ġdate": 3563,
      "ĠCont": 3564,
      "yd": 3565,
      "53": 3566,
      "Our": 3567,
      "AL": 3568,
      "Ġcoming": 3569,
      "ĠPres": 3570,
      "Ġpractice": 3571,
      "Ġpret": 3572,
      "new": 3573,
      "Ġcoefficient": 3574,
      "Ġtold": 3575,
      "Ġcases": 3576,
      "And": 3577,
      "Ġdog": 3578,
      "arget": 3579,
      "Ġfeed": 3580,
      "Ġcomputer": 3581,
      "Ġdegrees": 3582,
      "Ġsong": 3583,
      "Ġ58": 3584,
      "Ġloss": 3585,
      "Ġstop": 3586,
      "ĠPer": 3587,
      "Al": 3588,
      "ĠSte": 3589,
      "Ġcorrect": 3590,
      "ĠYork": 3591,
      "Ġshows": 3592,
      "Ġeducation": 3593,
      "rodu": 3594,
      "reme": 3595,
      "Ġmaximum": 3596,
      "Ġbal": 3597,
      "ĠAg": 3598,
      "coming": 3599,
      "Ġcoun": 3600,
      "Ġcollection": 3601,
      "ĠPlease": 3602,
      "fficients": 3603,
      "Ġcy": 3604,
      "Ġactivities": 3605,
      "Ġroots": 3606,
      "Ġrent": 3607,
      "ains": 3608,
      "ĠPark": 3609,
      "Ġcoefficients": 3610,
      "ny": 3611,
      "ĠLaw": 3612,
      "atform": 3613,
      "Ġmix": 3614,
      "used": 3615,
      "Ġrelated": 3616,
      "Ġmethod": 3617,
      "Ġlower": 3618,
      "Ġskills": 3619,
      "Ġpolit": 3620,
      "Ġsun": 3621,
      "Ġapproach": 3622,
      "Ġprobably": 3623,
      "|^\\": 3624,
      "Ġhappy": 3625,
      "Ġleave": 3626,
      "ĠTotal": 3627,
      "aurant": 3628,
      "Ġfundamental": 3629,
      "Number": 3630,
      "complement": 3631,
      "74": 3632,
      "Ġteac": 3633,
      "Ġfile": 3634,
      "Ġ:": 3635,
      "head": 3636,
      "Ġdom": 3637,
      "Ġproduction": 3638,
      "Ġexpressing": 3639,
      "izes": 3640,
      "Ġeasily": 3641,
      "Ġcredit": 3642,
      "ĠBo": 3643,
      "Ġgoal": 3644,
      "\\{": 3645,
      "ĠCho": 3646,
      "Ġarri": 3647,
      "IC": 3648,
      "abilities": 3649,
      "Ġitself": 3650,
      "ĠTr": 3651,
      "Ġaction": 3652,
      "Ġ65": 3653,
      "vert": 3654,
      "Ġaccording": 3655,
      "Ġapples": 3656,
      "fully": 3657,
      "Ġversion": 3658,
      "ĠPr": 3659,
      "Ġsn": 3660,
      "Ġgrowth": 3661,
      "ĠKe": 3662,
      "inter": 3663,
      "Ġrole": 3664,
      "Ġcr": 3665,
      "icles": 3666,
      "69": 3667,
      "izz": 3668,
      "Ġprivate": 3669,
      "ada": 3670,
      "erc": 3671,
      "ĠFrom": 3672,
      "king": 3673,
      "Ġisn": 3674,
      "amer": 3675,
      "Ġbath": 3676,
      "Ġlost": 3677,
      "Ġfill": 3678,
      "Ġprojects": 3679,
      "Ġgrows": 3680,
      "Ġcube": 3681,
      "Le": 3682,
      "Ġ#": 3683,
      "Ġheld": 3684,
      "cal": 3685,
      "ceed": 3686,
      "Ġmo": 3687,
      "Ġten": 3688,
      "Ġvariety": 3689,
      "hib": 3690,
      "Ġresid": 3691,
      "Ġincluded": 3692,
      "ĠSm": 3693,
      "Ġpiece": 3694,
      "Ġpretty": 3695,
      "ĠWorld": 3696,
      "Ġuses": 3697,
      "ĠAm": 3698,
      "Ġdiag": 3699,
      "Ġmorning": 3700,
      "Ġcop": 3701,
      "Ġinj": 3702,
      "Ġvia": 3703,
      "Ġfinish": 3704,
      "\",": 3705,
      "Ġrewrite": 3706,
      "Ġadj": 3707,
      "Ġlooks": 3708,
      "ipe": 3709,
      "Ġaccept": 3710,
      "Ġter": 3711,
      "oura": 3712,
      "Ġregion": 3713,
      "Ġstates": 3714,
      "ĠPa": 3715,
      "ivity": 3716,
      "ĠHer": 3717,
      "pril": 3718,
      "Ġreach": 3719,
      "ffee": 3720,
      "Ġfirm": 3721,
      "ler": 3722,
      "87": 3723,
      "Ġunit": 3724,
      "ses": 3725,
      "action": 3726,
      "mediate": 3727,
      "ana": 3728,
      "Ġassoci": 3729,
      "Ġdiscount": 3730,
      "Ġbank": 3731,
      "ometric": 3732,
      "Ġprior": 3733,
      "Ġchoices": 3734,
      "ĠAf": 3735,
      "ground": 3736,
      "orean": 3737,
      "ĠGe": 3738,
      "Now": 3739,
      "ĠCha": 3740,
      "Ġbehind": 3741,
      "Ġ500": 3742,
      "Ġspeak": 3743,
      "Ġequations": 3744,
      "Ġmarketing": 3745,
      "Ġsound": 3746,
      "|^{\\": 3747,
      "Ġpatients": 3748,
      "Ġgroups": 3749,
      "ĠPe": 3750,
      "Ġcode": 3751,
      "Ġequals": 3752,
      "Ġfram": 3753,
      "Ġtypes": 3754,
      "Ġamazing": 3755,
      "333": 3756,
      "Ġzero": 3757,
      "ison": 3758,
      "Ġhands": 3759,
      "Ġcool": 3760,
      "plied": 3761,
      "Ġofficial": 3762,
      ")/(\\": 3763,
      "Ġrecent": 3764,
      "Ġmaterials": 3765,
      "Ġill": 3766,
      "oring": 3767,
      "Ġrequest": 3768,
      "Ġkil": 3769,
      "ained": 3770,
      "Ġmatch": 3771,
      "Ġgold": 3772,
      "Ġtour": 3773,
      "atter": 3774,
      "ĠJust": 3775,
      "Ġdecided": 3776,
      "Ġupon": 3777,
      "Ġquickly": 3778,
      "Ġexcept": 3779,
      "Ġsens": 3780,
      "Ġarticle": 3781,
      "Ġdisplay": 3782,
      "Ġhair": 3783,
      "Ġdest": 3784,
      "light": 3785,
      "Ġ51": 3786,
      "ĠHar": 3787,
      "Ġmodern": 3788,
      "Ġexam": 3789,
      "ĠTH": 3790,
      "Ġplans": 3791,
      "ĠFri": 3792,
      "))?": 3793,
      "hest": 3794,
      "61": 3795,
      "oogle": 3796,
      "Ġcars": 3797,
      "minist": 3798,
      "uals": 3799,
      "ĠSome": 3800,
      "Ġ+-": 3801,
      "Ġnegative": 3802,
      "Ġkitchen": 3803,
      "ĠDis": 3804,
      "Ġlangu": 3805,
      "RE": 3806,
      "Ġ((\\": 3807,
      "ublic": 3808,
      "Ġparents": 3809,
      "ming": 3810,
      "Ġhon": 3811,
      "Ġlocation": 3812,
      "ĠSu": 3813,
      "ĠHigh": 3814,
      "ads": 3815,
      "At": 3816,
      "Ġbab": 3817,
      "urg": 3818,
      "Ġfix": 3819,
      "osing": 3820,
      "Ġboard": 3821,
      "Ġleading": 3822,
      "year": 3823,
      "Ġlatest": 3824,
      "Ġnecessary": 3825,
      "Ġbud": 3826,
      "Ġdiver": 3827,
      "ĠMond": 3828,
      "Ġmedical": 3829,
      "Ġcookies": 3830,
      "ĠConsidering": 3831,
      "Ġge": 3832,
      "ĠStud": 3833,
      "Ġhor": 3834,
      "raw": 3835,
      "uce": 3836,
      "Ġmeeting": 3837,
      "Ġproviding": 3838,
      "Ġsaw": 3839,
      "Ġremember": 3840,
      "la": 3841,
      "Ġ57": 3842,
      "inc": 3843,
      "Ġshall": 3844,
      "ym": 3845,
      "ĠDr": 3846,
      "Ġguide": 3847,
      "Ġsummer": 3848,
      "iring": 3849,
      "!$,": 3850,
      "ĠCor": 3851,
      "Ġemb": 3852,
      "Ġglass": 3853,
      "Ġplatform": 3854,
      "ands": 3855,
      "Ġsequence": 3856,
      "Multi": 3857,
      "ĠStates": 3858,
      "With": 3859,
      "Ġdaily": 3860,
      "Ġsport": 3861,
      "Ġlarger": 3862,
      "ibra": 3863,
      "ĠEd": 3864,
      "Ġannoun": 3865,
      "abor": 3866,
      "ek": 3867,
      "Ġasked": 3868,
      "Ġceleb": 3869,
      "ĠWill": 3870,
      "iation": 3871,
      "Ġgen": 3872,
      "Ġdenominators": 3873,
      "Ġlives": 3874,
      "Ġpdf": 3875,
      "ales": 3876,
      "ĠReg": 3877,
      "Ġminimum": 3878,
      "Ġequipment": 3879,
      "ĠBu": 3880,
      "Ġcoordin": 3881,
      "86": 3882,
      "Ġcourt": 3883,
      "Ġseconds": 3884,
      "Ġeffective": 3885,
      "Ġ400": 3886,
      "But": 3887,
      "Ġchance": 3888,
      "Ġrev": 3889,
      "ĠOf": 3890,
      "Ġsituation": 3891,
      "Ġword": 3892,
      "rab": 3893,
      "hag": 3894,
      "pose": 3895,
      "Ġaffect": 3896,
      "based": 3897,
      ")=": 3898,
      "Ġcat": 3899,
      "aging": 3900,
      "Ġseems": 3901,
      "Ġpain": 3902,
      "Ġeight": 3903,
      "Ġfru": 3904,
      "Ġ2015": 3905,
      "ĠApril": 3906,
      "59": 3907,
      "Ġinternational": 3908,
      "aylor": 3909,
      "Ġability": 3910,
      "Ġsection": 3911,
      "89": 3912,
      "Ġprograms": 3913,
      "Ġradius": 3914,
      "Ġdeep": 3915,
      "Ġrefer": 3916,
      "Ġsaf": 3917,
      "Ġpolicy": 3918,
      "Ġrecently": 3919,
      "mas": 3920,
      "Ġnothing": 3921,
      "omes": 3922,
      "ĠDon": 3923,
      "Ġtarget": 3924,
      "'''(": 3925,
      "Ġheav": 3926,
      "elt": 3927,
      "Ġchair": 3928,
      "Ġfavorite": 3929,
      "Ġquadratic": 3930,
      "Ġinstead": 3931,
      "Ġadult": 3932,
      "Ġroll": 3933,
      "Ġanyone": 3934,
      "Ġearn": 3935,
      "Ġrestaurant": 3936,
      "Ġintrodu": 3937,
      "Ġfresh": 3938,
      "1000": 3939,
      "uting": 3940,
      "ords": 3941,
      "rew": 3942,
      "ridge": 3943,
      "Ġdivisible": 3944,
      "Ġscreen": 3945,
      "ĠCenter": 3946,
      "01": 3947,
      "Ġru": 3948,
      "Ġemployees": 3949,
      "Ġinfinitely": 3950,
      "Ġdiverges": 3951,
      "ĠFriday": 3952,
      "orage": 3953,
      "Ġtools": 3954,
      "Ġop": 3955,
      "Qu": 3956,
      "Ġleaders": 3957,
      "Ġlevels": 3958,
      "ĠĠĠĠ": 3959,
      "Ġcause": 3960,
      "lier": 3961,
      "icated": 3962,
      "ached": 3963,
      "Multiplication": 3964,
      "Ġschedu": 3965,
      "Ġsense": 3966,
      "adem": 3967,
      "Ġtown": 3968,
      "exp": 3969,
      "nel": 3970,
      "anding": 3971,
      "Inverse": 3972,
      "ĠAb": 3973,
      "Ġgreatest": 3974,
      "Ġstock": 3975,
      "ĠMonday": 3976,
      "Ġcm": 3977,
      "Ġsto": 3978,
      "79": 3979,
      "arc": 3980,
      "Ġsett": 3981,
      "mit": 3982,
      "Ġoun": 3983,
      "armonic": 3984,
      "//": 3985,
      "Ġ63": 3986,
      "82": 3987,
      "Ġelectric": 3988,
      "uary": 3989,
      "_{\\": 3990,
      "05": 3991,
      "Ġpers": 3992,
      "wise": 3993,
      "600": 3994,
      "ĠMarch": 3995,
      "ption": 3996,
      "ĠAustral": 3997,
      "hol": 3998,
      "Ġple": 3999,
      "Ġestimate": 4000,
      "pon": 4001,
      "Ġgas": 4002,
      "Ġmount": 4003,
      "mary": 4004,
      "\".": 4005,
      "Ġarrange": 4006,
      "Ġgiving": 4007,
      "ders": 4008,
      "ĠDeterm": 4009,
      "ĠCounty": 4010,
      "ises": 4011,
      "Product": 4012,
      "Ġcommit": 4013,
      "Ġsand": 4014,
      "110": 4015,
      "aran": 4016,
      "Ġrepair": 4017,
      "240": 4018,
      "ĠEm": 4019,
      "Ġfarm": 4020,
      "des": 4021,
      "Ġmother": 4022,
      "Ġtemper": 4023,
      "ĠMc": 4024,
      "Ġphotos": 4025,
      "Ġminute": 4026,
      "Ġplaying": 4027,
      "board": 4028,
      "ĠSatur": 4029,
      "Ġmeasure": 4030,
      "Ġboxes": 4031,
      "Ġsmaller": 4032,
      "Ġexcellent": 4033,
      "Ġdirectly": 4034,
      "ession": 4035,
      "Ġdevice": 4036,
      "Ġhighly": 4037,
      "Ġfair": 4038,
      "83": 4039,
      "ĠPre": 4040,
      "Ġmoment": 4041,
      "Ġconverge": 4042,
      "meaning": 4043,
      "Ġsurface": 4044,
      "Ġexpert": 4045,
      "uri": 4046,
      "Ġlate": 4047,
      "Ġmachine": 4048,
      "71": 4049,
      "ĠUK": 4050,
      "Ġ66": 4051,
      "ĠWhile": 4052,
      "ĠDep": 4053,
      "Ġinvolved": 4054,
      "After": 4055,
      "irit": 4056,
      "Ġmobile": 4057,
      "ĠSund": 4058,
      "Ġcommer": 4059,
      "Ġthemselves": 4060,
      "Ġbirth": 4061,
      "Euler": 4062,
      "ables": 4063,
      "Ġtit": 4064,
      "Ġcountries": 4065,
      "Ġbenefits": 4066,
      "Derivative": 4067,
      "ription": 4068,
      "ĠDetermine": 4069,
      "Ġapart": 4070,
      "Ġrepe": 4071,
      "!}*": 4072,
      "Ġsufficient": 4073,
      "Ġpath": 4074,
      "Ġcarry": 4075,
      "Ġdoor": 4076,
      "su": 4077,
      "Ġ2014": 4078,
      "Ġsubstitute": 4079,
      "Ġbases": 4080,
      "Ġresources": 4081,
      "ĠWed": 4082,
      "Ġblock": 4083,
      "rought": 4084,
      "Ġimplement": 4085,
      "Ġdecision": 4086,
      "earch": 4087,
      "Ġdire": 4088,
      "nder": 4089,
      "ĠFran": 4090,
      "dig": 4091,
      "Ġnational": 4092,
      "Ġ1000": 4093,
      ")}*": 4094,
      "Ġmultiplied": 4095,
      "Ġencoura": 4096,
      "Ġimmediate": 4097,
      "ola": 4098,
      "ĠPMF": 4099,
      "finition": 4100,
      "ythag": 4101,
      "Ġplanning": 4102,
      "ividing": 4103,
      "Ġprices": 4104,
      "Ġdigital": 4105,
      "Ġcoffee": 4106,
      "Ðµ": 4107,
      "OT": 4108,
      "Ġlic": 4109,
      "Ġdj": 4110,
      "AB": 4111,
      "ythagorean": 4112,
      "like": 4113,
      "Ġarm": 4114,
      "ĠOct": 4115,
      "Ġ(($": 4116,
      "ological": 4117,
      "Ġ96": 4118,
      "roup": 4119,
      "Ġhous": 4120,
      "Ġdemand": 4121,
      "+\\": 4122,
      "nal": 4123,
      "ĠAir": 4124,
      "imate": 4125,
      "$\\": 4126,
      "ham": 4127,
      "Ġarch": 4128,
      "Ġtouch": 4129,
      "Ġdress": 4130,
      "ĠJune": 4131,
      "Ġanalyt": 4132,
      "Ġinvolving": 4133,
      "AM": 4134,
      "ĠAct": 4135,
      "Ġweekend": 4136,
      "Ġcompletely": 4137,
      "Ġvac": 4138,
      "ky": 4139,
      "atory": 4140,
      "ĠEl": 4141,
      "Ġhighest": 4142,
      "Ġlines": 4143,
      "ties": 4144,
      "Ġep": 4145,
      "Ġdro": 4146,
      "OS": 4147,
      "ĠDay": 4148,
      "Ġfully": 4149,
      "Ġsafety": 4150,
      "My": 4151,
      "inct": 4152,
      "Ġappl": 4153,
      "Ġconsist": 4154,
      "Ġcontains": 4155,
      "top": 4156,
      "Ġrect": 4157,
      "Ġfail": 4158,
      "Ch": 4159,
      "Ġdiscover": 4160,
      "Ġincreased": 4161,
      "Ġhelps": 4162,
      "Ġsource": 4163,
      "hel": 4164,
      "Ġqual": 4165,
      "Ġtickets": 4166,
      "iture": 4167,
      "__": 4168,
      "Ġcas": 4169,
      "Ġtrain": 4170,
      "Ġshop": 4171,
      "Ġimages": 4172,
      "Ġbudget": 4173,
      "Ġneigh": 4174,
      "Ġ110": 4175,
      "asons": 4176,
      "}/\\": 4177,
      "Ġcareer": 4178,
      "cast": 4179,
      "onse": 4180,
      "iling": 4181,
      "Ġhuge": 4182,
      "oud": 4183,
      "aged": 4184,
      "ĠRob": 4185,
      "uel": 4186,
      "Ġessential": 4187,
      "Ġfurn": 4188,
      "ĠWind": 4189,
      "Ġ84": 4190,
      "Ġdifferentiation": 4191,
      "ĠGre": 4192,
      "Ġmarbles": 4193,
      "den": 4194,
      "Ġdocument": 4195,
      "uments": 4196,
      "ilies": 4197,
      "ĠEnglish": 4198,
      "Ġrequirements": 4199,
      "tempt": 4200,
      "Ġcommercial": 4201,
      "Ġsuit": 4202,
      "Ġeggs": 4203,
      "Ġelim": 4204,
      "Ġslow": 4205,
      "Ġtree": 4206,
      "://": 4207,
      "rup": 4208,
      "All": 4209,
      "OU": 4210,
      "Ġgarden": 4211,
      "itely": 4212,
      "ĠMon": 4213,
      "ĠIns": 4214,
      "!}$.": 4215,
      "Ġcompon": 4216,
      "125": 4217,
      "Ġreplace": 4218,
      "ĠSaturday": 4219,
      "my": 4220,
      "Ġglobal": 4221,
      "Ġdry": 4222,
      "Ġclub": 4223,
      "Ġdouble": 4224,
      "Ġtrust": 4225,
      "ĠTV": 4226,
      "zz": 4227,
      "Ġattract": 4228,
      "Ġinteresting": 4229,
      "Ġprefer": 4230,
      "Ġorganization": 4231,
      "Ġattention": 4232,
      "wood": 4233,
      "vey": 4234,
      "roll": 4235,
      "âĢĿ.": 4236,
      "ament": 4237,
      "ĠExpress": 4238,
      "Ġregister": 4239,
      "Ġinnov": 4240,
      "ĠAut": 4241,
      "ĠSep": 4242,
      "Ġmention": 4243,
      "Ġâ": 4244,
      "Ġlegal": 4245,
      "ĠSum": 4246,
      "ccc": 4247,
      "Ġ53": 4248,
      "ivery": 4249,
      "Ġ--": 4250,
      "Ġdogs": 4251,
      "|}": 4252,
      "Ġimm": 4253,
      "ĠAmerica": 4254,
      "Ġ68": 4255,
      "Ġemer": 4256,
      "aign": 4257,
      "inner": 4258,
      "ĠHol": 4259,
      "icks": 4260,
      "Ġwed": 4261,
      "Ġconcept": 4262,
      "Ġachieve": 4263,
      "Ġgirls": 4264,
      "Ġpool": 4265,
      "uts": 4266,
      "160": 4267,
      "Ġrad": 4268,
      "ĠJo": 4269,
      "Ġdeath": 4270,
      "Ġdise": 4271,
      "hern": 4272,
      "Ġscore": 4273,
      "Ġplaces": 4274,
      "Ġbrother": 4275,
      "itude": 4276,
      "ĠHouse": 4277,
      "Ġcharacterized": 4278,
      "Ġsomet": 4279,
      "iet": 4280,
      "ĠHealth": 4281,
      "ĠSec": 4282,
      "Ġwish": 4283,
      "Ġclient": 4284,
      "ifies": 4285,
      "ĠPoisson": 4286,
      "Ġextreme": 4287,
      "Ġspends": 4288,
      "Ġpicture": 4289,
      "ection": 4290,
      "Ġhit": 4291,
      "Ġgradu": 4292,
      "Ġprofit": 4293,
      "off": 4294,
      "Ġsums": 4295,
      "ondon": 4296,
      "Ġcash": 4297,
      "Ġgoals": 4298,
      "Ġresponse": 4299,
      "imals": 4300,
      "gment": 4301,
      "Ġ99": 4302,
      "ester": 4303,
      "uted": 4304,
      "105": 4305,
      "Ġsteps": 4306,
      "333333333333": 4307,
      "Ġnumerator": 4308,
      "oke": 4309,
      "Ġfab": 4310,
      "tended": 4311,
      "250": 4312,
      "One": 4313,
      "ĠDav": 4314,
      "haps": 4315,
      "print": 4316,
      "Ġtraditional": 4317,
      "Ġexec": 4318,
      ",-": 4319,
      "Ġbill": 4320,
      "Ġconne": 4321,
      "Ġmyself": 4322,
      "Ð¾": 4323,
      "pre": 4324,
      "eds": 4325,
      "Ġdecor": 4326,
      "sy": 4327,
      "Ġplayed": 4328,
      "umn": 4329,
      "ĠGoogle": 4330,
      "Ġprevent": 4331,
      "uesday": 4332,
      "Ġentry": 4333,
      "Ġmoving": 4334,
      "Ġplayer": 4335,
      "Ġsites": 4336,
      "ĠSunday": 4337,
      "ĠAug": 4338,
      "Ġtowards": 4339,
      "ications": 4340,
      "Ġapplications": 4341,
      "hood": 4342,
      "org": 4343,
      "333333333333333": 4344,
      "Ġcreating": 4345,
      "Ġdeveloped": 4346,
      "ĠOff": 4347,
      "Ġwarm": 4348,
      "amed": 4349,
      "arge": 4350,
      "ĠInternational": 4351,
      "ama": 4352,
      "Ġchoc": 4353,
      "Ġinvestment": 4354,
      "Ġ2013": 4355,
      "iam": 4356,
      "Ġattempt": 4357,
      "ĠAfric": 4358,
      "Ġmovie": 4359,
      "Ġbeha": 4360,
      "Ġconsult": 4361,
      "Ġsil": 4362,
      "ĠSha": 4363,
      "Ġconsidered": 4364,
      "ĠAcc": 4365,
      "ĠEvery": 4366,
      "Ġlanguage": 4367,
      "Ġletter": 4368,
      "Ġdrink": 4369,
      "Ġpartners": 4370,
      "Ġ85": 4371,
      "ellow": 4372,
      "Ġcharge": 4373,
      "ole": 4374,
      "Ġindividuals": 4375,
      "Ġinterested": 4376,
      "Ġstorage": 4377,
      "Ġwat": 4378,
      "ville": 4379,
      "Ġwel": 4380,
      "tember": 4381,
      "Ġlimited": 4382,
      "Ġconstruction": 4383,
      "ĠFl": 4384,
      "ĠRep": 4385,
      "Be": 4386,
      "ĠSan": 4387,
      "Ġthinking": 4388,
      "ĠWar": 4389,
      "Ġbecame": 4390,
      "Ġbusinesses": 4391,
      "Ġindepend": 4392,
      "Ġpromot": 4393,
      "Ġhear": 4394,
      "Ġserious": 4395,
      "ĠFeb": 4396,
      "Ġdepart": 4397,
      "Ġounces": 4398,
      "ued": 4399,
      "Ġaware": 4400,
      "Ġproduce": 4401,
      "key": 4402,
      "Ġconduct": 4403,
      "De": 4404,
      "ĠMa": 4405,
      "ĠHome": 4406,
      "})/(": 4407,
      "orge": 4408,
      "Ġvehicle": 4409,
      "ĠMore": 4410,
      "Ġmessage": 4411,
      "aps": 4412,
      "ĠInc": 4413,
      "pa": 4414,
      "Ġexerc": 4415,
      "Ġheat": 4416,
      "Ġmic": 4417,
      "Ġnormal": 4418,
      "ipping": 4419,
      "uses": 4420,
      "Ġrelease": 4421,
      "house": 4422,
      "Ġfine": 4423,
      "Ġcombined": 4424,
      "ober": 4425,
      "ribed": 4426,
      "ĠBra": 4427,
      "Answer": 4428,
      "Ġpictures": 4429,
      "Ġkn": 4430,
      "ening": 4431,
      "Ġbrought": 4432,
      "Ġbegan": 4433,
      "Ġmaintain": 4434,
      "Ġprofession": 4435,
      "Ġprogress": 4436,
      "Ġballs": 4437,
      "inary": 4438,
      "ĠTuesday": 4439,
      "ĠJanuary": 4440,
      "Ġnature": 4441,
      "cil": 4442,
      "ibrary": 4443,
      "Ġeasier": 4444,
      "ĠChristmas": 4445,
      "Ġbur": 4446,
      "ĠBrit": 4447,
      "Ġwrong": 4448,
      "Ġsupply": 4449,
      "Ġcri": 4450,
      "Ġselling": 4451,
      "dent": 4452,
      "Ġidentity": 4453,
      "))^": 4454,
      "Ġsleep": 4455,
      "Ġbow": 4456,
      "Ġcub": 4457,
      "Taylor": 4458,
      "artment": 4459,
      "Ġsort": 4460,
      "mp": 4461,
      "yond": 4462,
      "Ġfrequ": 4463,
      "ods": 4464,
      "Ġ81": 4465,
      "Ġwait": 4466,
      "04": 4467,
      "Ġevaluated": 4468,
      "ĠSol": 4469,
      "erve": 4470,
      "Ġhotel": 4471,
      "ĠIndia": 4472,
      "Ġpropos": 4473,
      "|$": 4474,
      "Ġcamer": 4475,
      "ĠAc": 4476,
      "ifth": 4477,
      "Ġrights": 4478,
      "Ġadvant": 4479,
      "Ġ62": 4480,
      "nom": 4481,
      "Ġpet": 4482,
      "digit": 4483,
      "ka": 4484,
      "!\"": 4485,
      "ĠJuly": 4486,
      "Ġgrowing": 4487,
      "Ġprem": 4488,
      "ooth": 4489,
      "EC": 4490,
      "usiness": 4491,
      "Ġstrateg": 4492,
      "ĠFace": 4493,
      "idth": 4494,
      "Ġshown": 4495,
      "Ġincreasing": 4496,
      "lder": 4497,
      "Ġsometimes": 4498,
      "ĠLondon": 4499,
      "Ġholid": 4500,
      "Ġtal": 4501,
      "ension": 4502,
      "Ġ59": 4503,
      "ĠCos": 4504,
      "Ġcampaign": 4505,
      "Ġpizz": 4506,
      "Ġ2012": 4507,
      "Ġwonderful": 4508,
      "Ġlogarithm": 4509,
      "iment": 4510,
      "Ġfinding": 4511,
      "ĠNumber": 4512,
      "Ġintersections": 4513,
      "Ġcomplement": 4514,
      "ker": 4515,
      "ĠDirect": 4516,
      "isions": 4517,
      "Ġtele": 4518,
      "vest": 4519,
      "uth": 4520,
      "Ġ73": 4521,
      "equiv": 4522,
      "Ġlit": 4523,
      "Ġstuff": 4524,
      "ĠChoices": 4525,
      "Ġmeters": 4526,
      "Poisson": 4527,
      "ĠMus": 4528,
      "Ġvot": 4529,
      "ĠGerm": 4530,
      "Ġappropri": 4531,
      "Ġplanar": 4532,
      "Ġfamilies": 4533,
      "ĠChina": 4534,
      "Ġassess": 4535,
      "Ġphysical": 4536,
      "Ġwhose": 4537,
      "AD": 4538,
      "eng": 4539,
      "Ġorganiz": 4540,
      "Ġaim": 4541,
      "ĠPat": 4542,
      "Ġavoid": 4543,
      "nge": 4544,
      "Ġmeaning": 4545,
      "Ġima": 4546,
      "amps": 4547,
      "oice": 4548,
      "itation": 4549,
      "Ġposted": 4550,
      "Ġtransport": 4551,
      "Ġplants": 4552,
      "Ġblood": 4553,
      "Ġopportunities": 4554,
      "rast": 4555,
      "vant": 4556,
      "ĠDesign": 4557,
      "Ġband": 4558,
      "istry": 4559,
      "Ġphoto": 4560,
      "$)": 4561,
      "acity": 4562,
      "Ġrespond": 4563,
      "Ġprec": 4564,
      "Ġstick": 4565,
      "Ġunderstanding": 4566,
      "Ġformer": 4567,
      "Ġoffering": 4568,
      "rag": 4569,
      "odes": 4570,
      "ffer": 4571,
      "Ġice": 4572,
      "}^{\\": 4573,
      "Ġbottom": 4574,
      "ĠJames": 4575,
      "Differentiate": 4576,
      "/(\\": 4577,
      "Ġmiddle": 4578,
      "Ġhealthy": 4579,
      "Ġbeginning": 4580,
      "Ġ88": 4581,
      "ST": 4582,
      "Ġreduce": 4583,
      "Bay": 4584,
      "OM": 4585,
      "Ġinflu": 4586,
      "ĠProb": 4587,
      "rench": 4588,
      "ibly": 4589,
      "Ġdefinitely": 4590,
      "Ġtrees": 4591,
      "Ġactivity": 4592,
      "aling": 4593,
      "iable": 4594,
      "Ġanimals": 4595,
      "Ã¶": 4596,
      "Ġconvers": 4597,
      "ĠValue": 4598,
      "Ġassum": 4599,
      "Ġfight": 4600,
      "Ġimpress": 4601,
      "ĠSeptember": 4602,
      "ĠAlso": 4603,
      "Ġpurpose": 4604,
      "ĠBlack": 4605,
      "ĠNet": 4606,
      "Ġinvestig": 4607,
      "zy": 4608,
      "Ġruns": 4609,
      "Ġpolynom": 4610,
      "Ġpolynomial": 4611,
      "cember": 4612,
      "inate": 4613,
      "ancy": 4614,
      "band": 4615,
      "Ġ78": 4616,
      "Ġtow": 4617,
      "Ġregul": 4618,
      "itect": 4619,
      "\\}:": 4620,
      "Ġgrand": 4621,
      "nesday": 4622,
      "}\\\\{": 4623,
      "Ġdelivery": 4624,
      "raft": 4625,
      "Ġ76": 4626,
      "Ġrace": 4627,
      "Ġcopy": 4628,
      "pris": 4629,
      "ann": 4630,
      "rial": 4631,
      "iforn": 4632,
      "Ġeffort": 4633,
      "Ġpressure": 4634,
      "Ġstress": 4635,
      "Ġpopulation": 4636,
      "apan": 4637,
      "ica": 4638,
      "Ġ160": 4639,
      "])": 4640,
      "Ġcateg": 4641,
      "ĠService": 4642,
      "}(-": 4643,
      "Ġlik": 4644,
      "set": 4645,
      "Ġdark": 4646,
      "Ġdistinct": 4647,
      "Ġaward": 4648,
      "ĠCoun": 4649,
      "ertain": 4650,
      "ague": 4651,
      "ket": 4652,
      "AP": 4653,
      "ovember": 4654,
      "ours": 4655,
      "tail": 4656,
      "Ġdamage": 4657,
      "Ġexponent": 4658,
      "Ġquarter": 4659,
      "ET": 4660,
      "Ġchick": 4661,
      "Ġ128": 4662,
      "fl": 4663,
      "Ġhosp": 4664,
      "het": 4665,
      "Ġpairs": 4666,
      "Power": 4667,
      "Ġvector": 4668,
      "Ġinternet": 4669,
      "Ð°": 4670,
      "Ġsmart": 4671,
      "}*(-": 4672,
      "ington": 4673,
      "Ġhund": 4674,
      "))*": 4675,
      "ĠAN": 4676,
      "ĠColle": 4677,
      "Ġschools": 4678,
      "ĠFree": 4679,
      "Ġserve": 4680,
      "Ġpublished": 4681,
      "ades": 4682,
      "Ġhomes": 4683,
      "Ġeyes": 4684,
      "ĠOctober": 4685,
      "Ġafford": 4686,
      "ederal": 4687,
      "Ġ?": 4688,
      "rill": 4689,
      "Ġacqu": 4690,
      "Ġbenefit": 4691,
      "Ġteams": 4692,
      "Ġfelt": 4693,
      "ĠJes": 4694,
      "Ġonto": 4695,
      "Ġing": 4696,
      "ĠPresident": 4697,
      "aker": 4698,
      "140": 4699,
      "Ġleaves": 4700,
      "ĠAre": 4701,
      "Ġnote": 4702,
      "Ġ2010": 4703,
      "Ġrates": 4704,
      "ifornia": 4705,
      "inci": 4706,
      "attle": 4707,
      "Ġoverall": 4708,
      "ĠRed": 4709,
      "ĠPar": 4710,
      "quare": 4711,
      "sequ": 4712,
      "ipped": 4713,
      "Ġbroad": 4714,
      "Ġgallons": 4715,
      "Ġobserved": 4716,
      "ĠDan": 4717,
      "Ġtransfer": 4718,
      "Ġbehavi": 4719,
      "Ġenh": 4720,
      "ool": 4721,
      "Ġsus": 4722,
      "ography": 4723,
      "Ġbuying": 4724,
      "irts": 4725,
      "lines": 4726,
      "Since": 4727,
      "Ġoffered": 4728,
      "norms": 4729,
      "ĠStre": 4730,
      "Ġpayment": 4731,
      "Ġson": 4732,
      "\\\\\\": 4733,
      "pmod": 4734,
      "gram": 4735,
      "ida": 4736,
      "Ġbasis": 4737,
      "ING": 4738,
      "itution": 4739,
      "ĠKing": 4740,
      "Ġcompleted": 4741,
      "Ġsetting": 4742,
      "itz": 4743,
      "ĠLa": 4744,
      "vin": 4745,
      "venue": 4746,
      "ĠWednesday": 4747,
      "Ġ67": 4748,
      "Ġnotation": 4749,
      "Ġborn": 4750,
      "wor": 4751,
      "Ġappre": 4752,
      "Ġjud": 4753,
      "Ġaccom": 4754,
      "Ġadvert": 4755,
      "nging": 4756,
      "Ġcream": 4757,
      "asy": 4758,
      "Ġincome": 4759,
      "Ġexpresses": 4760,
      "Ġload": 4761,
      "ĠIdent": 4762,
      "Ġfather": 4763,
      "Ġstage": 4764,
      "Cl": 4765,
      "atively": 4766,
      "orrow": 4767,
      "lement": 4768,
      "Ġbags": 4769,
      "Ġdu": 4770,
      "Ġled": 4771,
      "Ġkm": 4772,
      "Ph": 4773,
      "ĠSw": 4774,
      "02": 4775,
      "Ġeye": 4776,
      "Ġban": 4777,
      "Ġreleased": 4778,
      "EL": 4779,
      "Ġcab": 4780,
      "Ġax": 4781,
      "}.\\]": 4782,
      "oday": 4783,
      "Ġimpl": 4784,
      "):": 4785,
      "Ġliter": 4786,
      "Ġproced": 4787,
      "/((-": 4788,
      "}{-\\": 4789,
      "Ġdevices": 4790,
      "zen": 4791,
      "ĠAssoci": 4792,
      "112": 4793,
      "Ġcompared": 4794,
      "Ġreflect": 4795,
      "Ġminus": 4796,
      "Ġmagn": 4797,
      "Ġ...,": 4798,
      "Ġexperienced": 4799,
      "Ġhistor": 4800,
      "Ġpolitical": 4801,
      "800": 4802,
      "ĠOut": 4803,
      "Ġsurround": 4804,
      "\\[\\": 4805,
      "Ġrequires": 4806,
      "ĠFacebook": 4807,
      "ĠDepartment": 4808,
      "Ġadminist": 4809,
      "ID": 4810,
      "Ġbaby": 4811,
      "ĠDecember": 4812,
      "ĠGreat": 4813,
      "semb": 4814,
      "urb": 4815,
      "Ġannual": 4816,
      "Ġrules": 4817,
      "Ġaspect": 4818,
      "ĠSch": 4819,
      "Ġstraight": 4820,
      "ĠCompany": 4821,
      "inciple": 4822,
      "owski": 4823,
      "hand": 4824,
      "Ġsufficiently": 4825,
      "oms": 4826,
      "ĠChar": 4827,
      "itions": 4828,
      "unt": 4829,
      "Ġbasic": 4830,
      "ĠCommun": 4831,
      "Ġchocolate": 4832,
      "change": 4833,
      "ĠMary": 4834,
      "porate": 4835,
      "olf": 4836,
      "Ġfiles": 4837,
      "Ġmer": 4838,
      "vis": 4839,
      "Ġowners": 4840,
      "Ġloved": 4841,
      "ĠÃ": 4842,
      "rian": 4843,
      "Ġwasn": 4844,
      "Ġbedroom": 4845,
      "ĠMost": 4846,
      "Ġ140": 4847,
      "Ġselected": 4848,
      "ruary": 4849,
      "Ġanalytic": 4850,
      "ĠInter": 4851,
      "Ġtrade": 4852,
      "iders": 4853,
      "draw": 4854,
      "Ġuseful": 4855,
      "Ġadjust": 4856,
      "ĠServices": 4857,
      "Ġcandid": 4858,
      "Ġwedding": 4859,
      "ĠFinally": 4860,
      "Ġcertainly": 4861,
      "Ġ69": 4862,
      "ĠGroup": 4863,
      "}_": 4864,
      "Ġadvice": 4865,
      "OV": 4866,
      "bc": 4867,
      "Ġfell": 4868,
      "clusion": 4869,
      "Ġtried": 4870,
      "ded": 4871,
      "IL": 4872,
      "iant": 4873,
      "Ġeffects": 4874,
      "ĠNovember": 4875,
      "Ġ95": 4876,
      "!}{(": 4877,
      "Ġactive": 4878,
      "ĠAugust": 4879,
      "Ġfeeling": 4880,
      "Ġcollege": 4881,
      "Ġaff": 4882,
      "ĠUsing": 4883,
      "amic": 4884,
      "Ġrock": 4885,
      "Ġble": 4886,
      "Ġhtt": 4887,
      "Ġcapt": 4888,
      "Ġmilk": 4889,
      "Ġlots": 4890,
      "prise": 4891,
      "bon": 4892,
      "ĠTechn": 4893,
      "phone": 4894,
      "Ġreported": 4895,
      "irling": 4896,
      "PS": 4897,
      "ursday": 4898,
      "Ġassign": 4899,
      "Ġcovered": 4900,
      "ronic": 4901,
      "Ġscience": 4902,
      "'d": 4903,
      "bit": 4904,
      "ashion": 4905,
      "03": 4906,
      "Ġ108": 4907,
      "ĠGener": 4908,
      "door": 4909,
      "night": 4910,
      "Ġjoin": 4911,
      "ĠCalifornia": 4912,
      "Ġthous": 4913,
      "Ġexisting": 4914,
      "Integ": 4915,
      "Ġrepl": 4916,
      "Ġguaran": 4917,
      "Ġappoint": 4918,
      "useum": 4919,
      "tracting": 4920,
      "ĠPower": 4921,
      "Ġlif": 4922,
      "Ġculture": 4923,
      "Ġado": 4924,
      "Ġseven": 4925,
      "Wall": 4926,
      ")))": 4927,
      "ĠDividing": 4928,
      "Ġheard": 4929,
      "Ġ2011": 4930,
      "itary": 4931,
      "Ġregarding": 4932,
      "Ġcomment": 4933,
      "Ġassociated": 4934,
      "Ġdirection": 4935,
      "ĠMor": 4936,
      "Ġpattern": 4937,
      "ĠThanks": 4938,
      "Pythagorean": 4939,
      "Ġearned": 4940,
      "ĠDifferentiate": 4941,
      "Ġbeyond": 4942,
      "Ġboys": 4943,
      "hold": 4944,
      "Ġconcer": 4945,
      "Therefore": 4946,
      "ĠIN": 4947,
      "108": 4948,
      "yth": 4949,
      "pite": 4950,
      "EO": 4951,
      "Ġrac": 4952,
      "Ġbatter": 4953,
      "Ġcoordinates": 4954,
      "Ġtruly": 4955,
      "ĠJapan": 4956,
      "Ġbrow": 4957,
      "Ġ600": 4958,
      "pes": 4959,
      "neg": 4960,
      "ken": 4961,
      "Ġfinally": 4962,
      "Ġstructure": 4963,
      "Ġrain": 4964,
      "osen": 4965,
      "enior": 4966,
      "ett": 4967,
      "Ġpatient": 4968,
      "Ġstories": 4969,
      "ĠÂ£": 4970,
      "Ġeconomic": 4971,
      "aming": 4972,
      "Ġcolors": 4973,
      "lying": 4974,
      "Ġ112": 4975,
      "Ġitem": 4976,
      "Ġcomfortable": 4977,
      "Ġdemon": 4978,
      "Ġfifth": 4979,
      "Ġmis": 4980,
      "Ġstrate": 4981,
      "Ġresponsible": 4982,
      "That": 4983,
      "Ġ250": 4984,
      "Ġwindow": 4985,
      "Ġstrategy": 4986,
      "Ġdriving": 4987,
      "Ġolder": 4988,
      "Ġidentify": 4989,
      "Ġimmediately": 4990,
      "Ġappropriate": 4991,
      "She": 4992,
      "Ġturned": 4993,
      "wide": 4994,
      "mark": 4995,
      "urt": 4996,
      "apt": 4997,
      "Ġ2000": 4998,
      "Ġselection": 4999,
      "06": 5000,
      "Ġallowed": 5001,
      "bum": 5002,
      "Ġcapacity": 5003,
      "Ġspot": 5004,
      ")!*": 5005,
      "Ġjourney": 5006,
      "ĠEast": 5007,
      "Ġdividing": 5008,
      "}((": 5009,
      "Ġtemperature": 5010,
      "Total": 5011,
      "eria": 5012,
      "lin": 5013,
      "ĠTrans": 5014,
      "Ġgain": 5015,
      "ĠCosines": 5016,
      "Ġclasses": 5017,
      "tell": 5018,
      "Ġmodels": 5019,
      "Ġguests": 5020,
      "Ġ105": 5021,
      "Ġ74": 5022,
      "Ġbul": 5023,
      "Ġ61": 5024,
      "Ġflav": 5025,
      "Ġideal": 5026,
      "rel": 5027,
      "Normal": 5028,
      "Sub": 5029,
      "Ġchem": 5030,
      "ĠJesus": 5031,
      "ault": 5032,
      "Ġsatisfy": 5033,
      "ĠSystem": 5034,
      "Ġfinished": 5035,
      "Ġcapital": 5036,
      "Ġstudies": 5037,
      "ibn": 5038,
      "Ġdead": 5039,
      "Ġweigh": 5040,
      "ecause": 5041,
      "Ġspirit": 5042,
      "Expected": 5043,
      "Ġremark": 5044,
      "ĠEven": 5045,
      "Ġautomat": 5046,
      "Ġformat": 5047,
      "Ġtrend": 5048,
      "ĠFebruary": 5049,
      "Ġweather": 5050,
      "anger": 5051,
      "hop": 5052,
      "ĠEuropean": 5053,
      "Ġ144": 5054,
      "Ġcombination": 5055,
      "Ġ240": 5056,
      "enance": 5057,
      "ĠThursday": 5058,
      "Ġfurniture": 5059,
      "order": 5060,
      "Ġblo": 5061,
      "Ġclin": 5062,
      "ĠTangent": 5063,
      "Harmonic": 5064,
      "inkowski": 5065,
      "Bayes": 5066,
      "ĠCanada": 5067,
      "Ġdecl": 5068,
      "Ġ77": 5069,
      "Ġsubst": 5070,
      "Leibn": 5071,
      "Wallis": 5072,
      "Minkowski": 5073,
      "ĠProbabilities": 5074,
      "ĠSines": 5075,
      "field": 5076,
      "Log": 5077,
      "ĠSam": 5078,
      "Ġrooms": 5079,
      "Ġproperties": 5080,
      "Ġparticularly": 5081,
      "Stirling": 5082,
      "Ġchanged": 5083,
      "Ġtherefore": 5084,
      "ĠBro": 5085,
      "Variance": 5086,
      "ae": 5087,
      "ager": 5088,
      "Ġfat": 5089,
      "Ġflowers": 5090,
      "dom": 5091,
      "ĠProf": 5092,
      "Ġefficient": 5093,
      "iques": 5094,
      "cular": 5095,
      "Covariance": 5096,
      "hens": 5097,
      "}=\\": 5098,
      "tion": 5099,
      "ĠBusiness": 5100,
      "Ġ98": 5101,
      "Ġserved": 5102,
      "Ġbalance": 5103,
      "Multiply": 5104,
      "Ġemot": 5105,
      "itter": 5106,
      "Ġisolate": 5107,
      "Ġcong": 5108,
      "Ge": 5109,
      ".)": 5110,
      "ĠCollege": 5111,
      "fast": 5112,
      "Ġshopping": 5113,
      "istics": 5114,
      "}{(\\": 5115,
      "Ġpartner": 5116,
      "Ġmethods": 5117,
      "ĠInternet": 5118,
      "ĠInst": 5119,
      "erry": 5120,
      "Ġhelping": 5121,
      "oons": 5122,
      "abel": 5123,
      "Ġfigure": 5124,
      "Ġfee": 5125,
      "Ġhy": 5126,
      "rapy": 5127,
      "Ġplaced": 5128,
      "ĠJe": 5129,
      "eters": 5130,
      "ĠII": 5131,
      "Ġoperations": 5132,
      "Ġplane": 5133,
      "Ġcollabor": 5134,
      "Ġordered": 5135,
      "Ġfruit": 5136,
      "Ġbathroom": 5137,
      "Ġfabric": 5138,
      "Ġreve": 5139,
      "Ġdat": 5140,
      "Ġdiam": 5141,
      "Ġpen": 5142,
      "ĠPort": 5143,
      "Ġprotection": 5144,
      "Ġlack": 5145,
      "stituting": 5146,
      "Ġspl": 5147,
      "Ġsoci": 5148,
      "Ġhop": 5149,
      "Ġinfinte": 5150,
      "Ġdaught": 5151,
      "ĠStreet": 5152,
      "Ġextremely": 5153,
      "Ġchurch": 5154,
      "porary": 5155,
      "Ġnation": 5156,
      "Ġsou": 5157,
      "Ġproduced": 5158,
      "ĠAnswer": 5159,
      "Ġremove": 5160,
      "Ġalone": 5161,
      "}=": 5162,
      "iance": 5163,
      "Ġreasons": 5164,
      "ĠWindows": 5165,
      "Is": 5166,
      "Ġinform": 5167,
      "ĠPaul": 5168,
      "ologies": 5169,
      "Ġpenc": 5170,
      "Ġletters": 5171,
      "Ġdoub": 5172,
      "))/(-": 5173,
      "ms": 5174,
      "Ġfant": 5175,
      "Ġcreative": 5176,
      "Ġdisease": 5177,
      "ustain": 5178,
      "ĠAC": 5179,
      "Ġevaluates": 5180,
      "Ġdemonst": 5181,
      "Ġexhib": 5182,
      "Ġchallenge": 5183,
      "Ġshared": 5184,
      "Ġcritical": 5185,
      "duc": 5186,
      "mission": 5187,
      "Ġthank": 5188,
      "Ġvi": 5189,
      "Ġstarts": 5190,
      "ĠRuss": 5191,
      "Ġthrow": 5192,
      "Ġsatisfies": 5193,
      "ĠWell": 5194,
      "Do": 5195,
      "Ġlunch": 5196,
      "Ġbelie": 5197,
      "Ġtrou": 5198,
      "Ġsnow": 5199,
      "Ġinterview": 5200,
      "Ġsimplifies": 5201,
      "Ġmaybe": 5202,
      ")!}\\": 5203,
      "tex": 5204,
      "Ġconven": 5205,
      "Ġconcern": 5206,
      "rams": 5207,
      "These": 5208,
      "Ġthanks": 5209,
      "]\\": 5210,
      "Ġremain": 5211,
      "Ġsuffer": 5212,
      "Ġknew": 5213,
      "ĠWash": 5214,
      "Ġpowerful": 5215,
      "Ġrelax": 5216,
      "Ġbackground": 5217,
      "icip": 5218,
      "iy": 5219,
      "tel": 5220,
      "Ġowner": 5221,
      "div": 5222,
      "care": 5223,
      "Ġdecimal": 5224,
      "Ġbutton": 5225,
      "Ġslo": 5226,
      "ĠTHE": 5227,
      "Ġmaster": 5228,
      "Ġmath": 5229,
      "Ġsweet": 5230,
      "Ġ92": 5231,
      "unte": 5232,
      "ilarly": 5233,
      "Ġcups": 5234,
      "Ġstation": 5235,
      "Ġcleaning": 5236,
      "ĠMart": 5237,
      "Ġmechan": 5238,
      "Ġsty": 5239,
      "ĠMag": 5240,
      "Ġscient": 5241,
      "Â®": 5242,
      "Ġsells": 5243,
      "Ġdem": 5244,
      "Ġfollowed": 5245,
      "forts": 5246,
      "Ġride": 5247,
      "choice": 5248,
      "Ġahead": 5249,
      "Ġmoved": 5250,
      "Ġwoman": 5251,
      "Ġestate": 5252,
      "lands": 5253,
      "ĠMany": 5254,
      "Ġfem": 5255,
      "ously": 5256,
      "Ġcraft": 5257,
      "144": 5258,
      "Ġtips": 5259,
      "Ġnearly": 5260,
      "Ġyellow": 5261,
      "ĠRem": 5262,
      "Ġsuppl": 5263,
      "aly": 5264,
      "Ġsem": 5265,
      "Ġsaying": 5266,
      "othing": 5267,
      "Ġcompact": 5268,
      "360": 5269,
      "Ġinvolves": 5270,
      "Ġlegs": 5271,
      "Ġslices": 5272,
      "Ġreports": 5273,
      "inal": 5274,
      "Ġdomain": 5275,
      "force": 5276,
      ")--": 5277,
      "ears": 5278,
      "Ġ125": 5279,
      "unk": 5280,
      "Ġsecure": 5281,
      "Ġ360": 5282,
      "Ġscored": 5283,
      "que": 5284,
      "Ġcold": 5285,
      "Ġsizes": 5286,
      "ĠCle": 5287,
      "Ġmill": 5288,
      "Ġsugar": 5289,
      "Ġearlier": 5290,
      "alled": 5291,
      "ĠAustralia": 5292,
      "ĠBob": 5293,
      "Ġvict": 5294,
      "Ġbuys": 5295,
      "Ġdinner": 5296,
      "Ġsports": 5297,
      "Ġraised": 5298,
      "ĠPlay": 5299,
      "Ġevening": 5300,
      "Ġfi": 5301,
      "Ġsharing": 5302,
      "ady": 5303,
      "Ġestablished": 5304,
      "Ġingred": 5305,
      "}^{-\\": 5306,
      "Ġhelped": 5307,
      "ras": 5308,
      "ĠThus": 5309,
      "ĠPal": 5310,
      "Ġscen": 5311,
      "Ġtask": 5312,
      "ĠGet": 5313,
      "elly": 5314,
      "onal": 5315,
      "Ġstatement": 5316,
      "Ġhimself": 5317,
      "Ġwild": 5318,
      "Ġmanage": 5319,
      "Ġdie": 5320,
      "ented": 5321,
      "ĠAny": 5322,
      "hael": 5323,
      "Ġ115": 5324,
      "Ġshoot": 5325,
      "ĠIT": 5326,
      "Ġpackage": 5327,
      "ĠTom": 5328,
      "OL": 5329,
      "Ġmonitor": 5330,
      "Ġvill": 5331,
      "Ġreviews": 5332,
      "Ġtank": 5333,
      "Ġcircum": 5334,
      "ĠWhe": 5335,
      "ped": 5336,
      "Ġbutter": 5337,
      "Ġstrength": 5338,
      "Ġalthough": 5339,
      "ĠPC": 5340,
      "Ġalbum": 5341,
      "ĠOnce": 5342,
      "rus": 5343,
      "US": 5344,
      "ĠIndian": 5345,
      "Ġbrown": 5346,
      "ĠProgram": 5347,
      "ĠMod": 5348,
      "alt": 5349,
      "Ġneighbor": 5350,
      "Ġrecall": 5351,
      "Ġwear": 5352,
      "uk": 5353,
      "Ġoccas": 5354,
      "ĠFlor": 5355,
      "Ġactual": 5356,
      "Ġevidence": 5357,
      "Ġ\\[\\": 5358,
      "Ġshape": 5359,
      "Ġspread": 5360,
      "Ġcounter": 5361,
      "aries": 5362,
      "Ġadvantage": 5363,
      "Ġjobs": 5364,
      "ĠIS": 5365,
      "Ġcamera": 5366,
      "Ġgrant": 5367,
      "ico": 5368,
      "Ġconnection": 5369,
      "Ġattack": 5370,
      "Ġwine": 5371,
      "Ġsav": 5372,
      "iced": 5373,
      "Ġsolid": 5374,
      "anc": 5375,
      "$$": 5376,
      "ãģ": 5377,
      "ooking": 5378,
      "ivil": 5379,
      "Ġfilled": 5380,
      "fit": 5381,
      "Ġinstitution": 5382,
      "Ġhus": 5383,
      "Ġbars": 5384,
      "roid": 5385,
      "ened": 5386,
      "ĠAnn": 5387,
      "Ġtag": 5388,
      "Ġpolice": 5389,
      "gon": 5390,
      "Ġloan": 5391,
      "ĠBest": 5392,
      "align": 5393,
      "EM": 5394,
      "ĠDel": 5395,
      ")})$,": 5396,
      "power": 5397,
      "Sum": 5398,
      "eting": 5399,
      "Ġ2009": 5400,
      "Ġwife": 5401,
      "aving": 5402,
      "Ġworkers": 5403,
      "vention": 5404,
      "IP": 5405,
      "ĠGl": 5406,
      "Ġbillion": 5407,
      "Ġshoes": 5408,
      "08": 5409,
      "Ġelement": 5410,
      "ION": 5411,
      "ĠGold": 5412,
      "No": 5413,
      "omen": 5414,
      "Ġbread": 5415,
      "ĠRec": 5416,
      "ĠFrench": 5417,
      "rick": 5418,
      "Ġtitle": 5419,
      "Ġtall": 5420,
      "ĠMid": 5421,
      "_\\": 5422,
      "Ġincred": 5423,
      "inese": 5424,
      "Ġprimary": 5425,
      "Ġresist": 5426,
      "ĠOver": 5427,
      "Ġschedule": 5428,
      "Ġviews": 5429,
      "Ġslight": 5430,
      "ĠMac": 5431,
      "mes": 5432,
      "Ġflo": 5433,
      "Ġmetal": 5434,
      "Ġroof": 5435,
      "Ġtraffic": 5436,
      "Ġsegment": 5437,
      "...,": 5438,
      "Ġretail": 5439,
      "ols": 5440,
      "aled": 5441,
      "While": 5442,
      "ĠDavid": 5443,
      "iber": 5444,
      "Ġchosen": 5445,
      "Ġdrop": 5446,
      "718": 5447,
      "Ġrout": 5448,
      "Ġ2008": 5449,
      "ĠGreen": 5450,
      "Ġinspi": 5451,
      "Ġmultiplying": 5452,
      "ĠGra": 5453,
      "Ġcommunication": 5454,
      "Ġflex": 5455,
      "Ġsmooth": 5456,
      "oses": 5457,
      "Ġcells": 5458,
      "Logarithm": 5459,
      "ĠâĪ": 5460,
      "Ġshift": 5461,
      "ĠAssociation": 5462,
      "They": 5463,
      "Ġdecre": 5464,
      "Ġtheorem": 5465,
      "Ġprofessionals": 5466,
      "gen": 5467,
      "omb": 5468,
      "Ġcry": 5469,
      "ĠCouncil": 5470,
      "Ġpeace": 5471,
      "ĠWhite": 5472,
      "210": 5473,
      "Ġcru": 5474,
      "hips": 5475,
      "!}{\\": 5476,
      "ĠHot": 5477,
      "Ġhandle": 5478,
      "ĠBel": 5479,
      "Ġefforts": 5480,
      "Ġexperts": 5481,
      "Ġtechnical": 5482,
      "ĠGover": 5483,
      "Ġsurv": 5484,
      "imeter": 5485,
      "Ġannounced": 5486,
      "Ġlooked": 5487,
      "Ġbd": 5488,
      "Ġaren": 5489,
      "Ġforce": 5490,
      "Ġindependent": 5491,
      "ĠSpe": 5492,
      "ĠCD": 5493,
      "ĠNext": 5494,
      "ommod": 5495,
      "imize": 5496,
      "Ġorganizations": 5497,
      "ros": 5498,
      "airs": 5499,
      "matic": 5500,
      "Ġapproximately": 5501,
      "Ġkept": 5502,
      "Ġpercentage": 5503,
      "apers": 5504,
      "Ġforms": 5505,
      "Ġate": 5506,
      "acing": 5507,
      "Ġexpensive": 5508,
      "Ġcollected": 5509,
      "ĠHall": 5510,
      "Ġintegration": 5511,
      "term": 5512,
      "Ġincor": 5513,
      "07": 5514,
      "Ġinterior": 5515,
      "well": 5516,
      ")}*\\": 5517,
      "IG": 5518,
      "vision": 5519,
      "ĠVar": 5520,
      "Ġexperiences": 5521,
      "Ġ87": 5522,
      "Ġgenerally": 5523,
      "Ġoperation": 5524,
      "Ġju": 5525,
      "Ġcast": 5526,
      "....": 5527,
      "Ġappears": 5528,
      "Ġ111": 5529,
      "Ġsister": 5530,
      "illed": 5531,
      "Ġstandards": 5532,
      "2000": 5533,
      "Ġmedium": 5534,
      "Ġbeach": 5535,
      "Ġsteel": 5536,
      "Ġheavy": 5537,
      "Ġdelic": 5538,
      "gu": 5539,
      "encies": 5540,
      "Ġcit": 5541,
      "Ġseeing": 5542,
      "Ġleaving": 5543,
      "Ġpred": 5544,
      "Ġbc": 5545,
      "Ġteacher": 5546,
      "Ġopening": 5547,
      "Ġmanufactur": 5548,
      "ĠGo": 5549,
      "ĠBoard": 5550,
      "Ġteaching": 5551,
      "ĠCourt": 5552,
      "Ġsession": 5553,
      "ĠPlan": 5554,
      "ĠWeb": 5555,
      "Ġmotor": 5556,
      "kes": 5557,
      "ĠOffice": 5558,
      "Ġmile": 5559,
      "Ġcompetition": 5560,
      "Ġcart": 5561,
      "Ġarchitect": 5562,
      "Ġupdate": 5563,
      "Ġcatch": 5564,
      "Ġdefines": 5565,
      "Ġdecide": 5566,
      "wh": 5567,
      "Ġpull": 5568,
      "Ġopin": 5569,
      "ĠClub": 5570,
      "Ġstrug": 5571,
      "akers": 5572,
      "Ġanaly": 5573,
      "Ġpoor": 5574,
      "Ġnut": 5575,
      "Ġholiday": 5576,
      "],[-": 5577,
      "Ġadvanced": 5578,
      "bu": 5579,
      "},$": 5580,
      "ĠOther": 5581,
      "ishes": 5582,
      "130": 5583,
      "Ġstar": 5584,
      "Ġcancer": 5585,
      "Ġ\"!\"": 5586,
      "Ġthreat": 5587,
      "Ġchallenges": 5588,
      "ĠFe": 5589,
      "Ġrou": 5590,
      "))}$.": 5591,
      "Ġfriendly": 5592,
      "Ġwire": 5593,
      "Ġconvert": 5594,
      "Ġmonthly": 5595,
      "Ġwinter": 5596,
      "âĢĿ,": 5597,
      "ĠMari": 5598,
      "lenty": 5599,
      "Ġtalking": 5600,
      "Ġcentral": 5601,
      "Ġdriver": 5602,
      "Ġlisted": 5603,
      "Ġparties": 5604,
      "Ġsurpris": 5605,
      "Ġacadem": 5606,
      "));": 5607,
      "Ġmap": 5608,
      "isc": 5609,
      "[$,": 5610,
      "Ġperhaps": 5611,
      "Ġpizza": 5612,
      "ĠTwo": 5613,
      "Ġpush": 5614,
      "Ġnove": 5615,
      "iny": 5616,
      "Ġteachers": 5617,
      "works": 5618,
      "inations": 5619,
      "ĠBank": 5620,
      "Ġprepared": 5621,
      "pective": 5622,
      "Young": 5623,
      "Ġ82": 5624,
      "Ġkeeping": 5625,
      "Ġvisitors": 5626,
      "Ġbreat": 5627,
      "Ġadults": 5628,
      "Ġtrave": 5629,
      "enses": 5630,
      "Ġdeveloping": 5631,
      "reed": 5632,
      "Ġpassed": 5633,
      "Ġmemory": 5634,
      "Ġvoice": 5635,
      "een": 5636,
      "estival": 5637,
      "Ġdedicated": 5638,
      "Con": 5639,
      "ĠIm": 5640,
      "ĠFound": 5641,
      "Ġcandy": 5642,
      "Ġmission": 5643,
      "pir": 5644,
      "(\"": 5645,
      "Ġspring": 5646,
      "Ġcheap": 5647,
      "van": 5648,
      "ithmetic": 5649,
      "iency": 5650,
      "esome": 5651,
      "Ġ86": 5652,
      "à¤": 5653,
      "Ġserver": 5654,
      "Please": 5655,
      "Ġrot": 5656,
      "ĠTex": 5657,
      "Ġrecipe": 5658,
      "ĠEar": 5659,
      "Ġaccommod": 5660,
      "Ġcents": 5661,
      "Ġmi": 5662,
      ",...,": 5663,
      "Ġbright": 5664,
      "bed": 5665,
      "Ġhappens": 5666,
      "ĠEduc": 5667,
      "Ġmaintenance": 5668,
      "Ġstreet": 5669,
      "ĠDist": 5670,
      "Ġwelcome": 5671,
      "Ġprinciple": 5672,
      "Ġnamed": 5673,
      "Ġtechniques": 5674,
      "Ġbottle": 5675,
      "ĠAnt": 5676,
      "Ġvirt": 5677,
      "Ġtail": 5678,
      "ups": 5679,
      "Ġarithmetic": 5680,
      "Ġfacilities": 5681,
      "Ġedge": 5682,
      "Ġtransl": 5683,
      "Ġpros": 5684,
      "rif": 5685,
      "Ġcalls": 5686,
      "Ġhusband": 5687,
      "Ġhar": 5688,
      "Ġ79": 5689,
      "ĠExp": 5690,
      "Ġaudience": 5691,
      "ĠClass": 5692,
      "Ġretur": 5693,
      "ĠRs": 5694,
      "Ġpray": 5695,
      "Ġfunds": 5696,
      "Ġseparate": 5697,
      "Ġsector": 5698,
      "Ġmovement": 5699,
      "Ġwalking": 5700,
      "racters": 5701,
      "ĠSee": 5702,
      "Ġir": 5703,
      "uit": 5704,
      "ĠSubstituting": 5705,
      "Ġcomponents": 5706,
      "Ġmicro": 5707,
      "Ġbrain": 5708,
      "Ġdream": 5709,
      "Ġpassion": 5710,
      "orest": 5711,
      "Ġestablish": 5712,
      "Ġlearned": 5713,
      "Ġtesting": 5714,
      "Ġepis": 5715,
      "Ġpractices": 5716,
      "Ġfan": 5717,
      "Ġconnected": 5718,
      "CD": 5719,
      "racy": 5720,
      "ĠWashington": 5721,
      "Here": 5722,
      "body": 5723,
      "ĠChurch": 5724,
      "Ġnames": 5725,
      "ĠBen": 5726,
      "ĠThank": 5727,
      "Ġcomplements": 5728,
      "rating": 5729,
      "Ġenable": 5730,
      "ĠMal": 5731,
      "Ġwaste": 5732,
      "Ġpresented": 5733,
      "Ġshot": 5734,
      "Ġ130": 5735,
      "orial": 5736,
      "First": 5737,
      "ĠBill": 5738,
      "Ġswim": 5739,
      "free": 5740,
      "Geometric": 5741,
      "Ġ71": 5742,
      "}[(": 5743,
      "Ġbasket": 5744,
      "Ġeliminate": 5745,
      "inger": 5746,
      "Ġwaiting": 5747,
      "Ġexercise": 5748,
      "Ġfashion": 5749,
      "MS": 5750,
      "ĠManagement": 5751,
      "Ġharm": 5752,
      "Ġlose": 5753,
      "ribe": 5754,
      "101": 5755,
      "ascal": 5756,
      "Ġrid": 5757,
      "ĠAlex": 5758,
      ")+": 5759,
      "ĠWork": 5760,
      "Ne": 5761,
      "oop": 5762,
      "dv": 5763,
      "icine": 5764,
      "ĠChinese": 5765,
      "Ġrelevant": 5766,
      "ĠSupp": 5767,
      "plo": 5768,
      "ĠResearch": 5769,
      "Ġflat": 5770,
      "itors": 5771,
      "Ġmultiples": 5772,
      "roud": 5773,
      "Ġcomments": 5774,
      "Ġgone": 5775,
      "Ġsongs": 5776,
      "Ġvertex": 5777,
      "ĠMicro": 5778,
      "ĠGood": 5779,
      "Ġhelpful": 5780,
      "Ġremoved": 5781,
      "alls": 5782,
      "Ġwidth": 5783,
      "down": 5784,
      "leg": 5785,
      "ocial": 5786,
      "rief": 5787,
      "Ġvolunte": 5788,
      "lig": 5789,
      "ĠBook": 5790,
      "rael": 5791,
      "Ġcheese": 5792,
      "Ġbottles": 5793,
      "ĠBritish": 5794,
      "osure": 5795,
      "Ġ800": 5796,
      "lled": 5797,
      "ĠBre": 5798,
      "Ġcentury": 5799,
      "Pl": 5800,
      "ĠAnge": 5801,
      "Ġplenty": 5802,
      "Ġsubs": 5803,
      "Ġconference": 5804,
      "Ġmist": 5805,
      "Ġlinks": 5806,
      "Ġcommunities": 5807,
      "HÃ¶": 5808,
      "uration": 5809,
      "Ġessay": 5810,
      "ĠLake": 5811,
      "HÃ¶lder": 5812,
      "Ġentertain": 5813,
      "Ġcouldn": 5814,
      "ĠArm": 5815,
      "Ġ$[[": 5816,
      "ĠCap": 5817,
      "mitted": 5818,
      "Ġcharacters": 5819,
      "Ġjump": 5820,
      "Ġexplore": 5821,
      "Ġgar": 5822,
      "coordin": 5823,
      "Ġfaith": 5824,
      "Ġparking": 5825,
      "using": 5826,
      "Sh": 5827,
      "isation": 5828,
      "Ġraise": 5829,
      "pet": 5830,
      "ĠQuotient": 5831,
      "Ġforget": 5832,
      "Ġspending": 5833,
      "Ġotherwise": 5834,
      "Ġhaven": 5835,
      "ĠFlorida": 5836,
      "Ġremains": 5837,
      "Ġpsy": 5838,
      "Ġadvance": 5839,
      "135": 5840,
      "actions": 5841,
      "Ġrob": 5842,
      "Ġ|\\": 5843,
      "Ġapplied": 5844,
      "Ġquant": 5845,
      "ston": 5846,
      "ĠOb": 5847,
      "Ġ104": 5848,
      "Ġformed": 5849,
      "Ġquart": 5850,
      "Ġluck": 5851,
      "Ġrectangle": 5852,
      "ĠAP": 5853,
      "Ġchanging": 5854,
      "]{": 5855,
      "iewed": 5856,
      "enture": 5857,
      "ĠUp": 5858,
      "Ġstatus": 5859,
      "Ġdeduce": 5860,
      "Ġknows": 5861,
      "ago": 5862,
      "oyal": 5863,
      "Ġsustain": 5864,
      "ĠSy": 5865,
      ")}{-\\": 5866,
      "Ġcourses": 5867,
      "Ġbrings": 5868,
      "Ġ101": 5869,
      "Ġ89": 5870,
      "Ġwrote": 5871,
      "Ġlibrary": 5872,
      "Ġ83": 5873,
      "Ġcompre": 5874,
      "ĠMo": 5875,
      "Ġdesigns": 5876,
      "Ġvideos": 5877,
      "soft": 5878,
      "ĠSuper": 5879,
      "Ġtim": 5880,
      "Ġpal": 5881,
      "Ġfans": 5882,
      "ucks": 5883,
      "overy": 5884,
      "ĠDuring": 5885,
      "amin": 5886,
      "ĠâĪŀ": 5887,
      "[(": 5888,
      "Ġorders": 5889,
      "rd": 5890,
      "ï¿": 5891,
      "square": 5892,
      "Ġveget": 5893,
      "Ġdaughter": 5894,
      "ca": 5895,
      "Ġdiet": 5896,
      ")}\\,\\": 5897,
      "Ġ2007": 5898,
      "Ġinstallation": 5899,
      "Ġcabin": 5900,
      "Ġpresident": 5901,
      "ĠMichael": 5902,
      "ultimate": 5903,
      "Ġfees": 5904,
      "Ġresidents": 5905,
      "ette": 5906,
      "Ġ93": 5907,
      "Ġshowing": 5908,
      "Ġcake": 5909,
      "fol": 5910,
      "))^{-": 5911,
      "ĠSubtracting": 5912,
      "ĠSimilarly": 5913,
      "ï¿½": 5914,
      "ĠSa": 5915,
      "Ġcharges": 5916,
      "Ġticket": 5917,
      "Ġingredients": 5918,
      "gor": 5919,
      "fortun": 5920,
      "Ġoperating": 5921,
      "Ġeating": 5922,
      "=$": 5923,
      "rier": 5924,
      "ĠMount": 5925,
      "Ġchairs": 5926,
      "Ġopened": 5927,
      "ĠTexas": 5928,
      "ython": 5929,
      "Ġdoctor": 5930,
      "Ġlaunch": 5931,
      "ona": 5932,
      "Ġpas": 5933,
      "Ġrear": 5934,
      "umbers": 5935,
      "ĠPost": 5936,
      "Ġcaught": 5937,
      "Ġguess": 5938,
      "ĠDevelop": 5939,
      "Ġsea": 5940,
      "Ġdescribed": 5941,
      "Ġlift": 5942,
      "Ġearth": 5943,
      "ocal": 5944,
      "Ġscale": 5945,
      "Ġcoverage": 5946,
      "arance": 5947,
      "Un": 5948,
      "Ġmentioned": 5949,
      "Ġbirthday": 5950,
      "Ġvehicles": 5951,
      "ĠRoad": 5952,
      "Ġconsec": 5953,
      "Ġrecords": 5954,
      "ota": 5955,
      "Ġiniti": 5956,
      "Ġanti": 5957,
      "icate": 5958,
      "Ġrelig": 5959,
      "Ġgirl": 5960,
      "Ġeconomy": 5961,
      "tellig": 5962,
      "ternal": 5963,
      "Ġmilitary": 5964,
      "LE": 5965,
      "ranges": 5966,
      "Ġseat": 5967,
      "Ġrich": 5968,
      "%.": 5969,
      "Ġ102": 5970,
      "Ġframe": 5971,
      "oph": 5972,
      "ĠMem": 5973,
      "ĠST": 5974,
      "Ġcrow": 5975,
      "ĠAmaz": 5976,
      "Ġreality": 5977,
      "âĢ¢": 5978,
      "Ġpicked": 5979,
      "Ġnumerous": 5980,
      "Ġpurchased": 5981,
      "www": 5982,
      "Ġultimate": 5983,
      "Ġcontinued": 5984,
      "ĠMil": 5985,
      "PA": 5986,
      "Ġfootball": 5987,
      "Ġtheory": 5988,
      "Ġobjects": 5989,
      "Ġtrail": 5990,
      "Ġvalu": 5991,
      "ĠSk": 5992,
      "Ġthus": 5993,
      "Ġachie": 5994,
      "Ġdirector": 5995,
      "ĠJack": 5996,
      "!!!": 5997,
      "102": 5998,
      "Ġprocesses": 5999,
      "Ġmeat": 6000,
      "IM": 6001,
      "Ġwindows": 6002,
      "Ġmail": 6003,
      "lence": 6004,
      "ports": 6005,
      "gency": 6006,
      "Ġfamous": 6007,
      "Ġtruth": 6008,
      "Ġchicken": 6009,
      "Ġobvious": 6010,
      "enth": 6011,
      "Ġdepos": 6012,
      "ading": 6013,
      "}}{-": 6014,
      "Ġswitch": 6015,
      "Ġvision": 6016,
      "Ġ91": 6017,
      "ado": 6018,
      "Ġoutdoor": 6019,
      "Ġsociety": 6020,
      "see": 6021,
      "^{(-": 6022,
      "Ġcans": 6023,
      "*.": 6024,
      "0000": 6025,
      "ĠRiver": 6026,
      "ingly": 6027,
      "eps": 6028,
      "Ġdatab": 6029,
      "Ġwinning": 6030,
      "Ġrare": 6031,
      "Ġthousands": 6032,
      "Ġign": 6033,
      "Ġclassic": 6034,
      "Ġbeauty": 6035,
      "Ġserving": 6036,
      "ios": 6037,
      "oman": 6038,
      "Ġbound": 6039,
      "Ġ135": 6040,
      "Ġpump": 6041,
      "Ġdrug": 6042,
      "ĠInstitute": 6043,
      "ĠPi": 6044,
      "Ġstores": 6045,
      "Ġproud": 6046,
      ").$": 6047,
      "ĠBay": 6048,
      "104": 6049,
      "Ġleader": 6050,
      "Ġclosed": 6051,
      "Ġtempl": 6052,
      "Ġtheme": 6053,
      "Ġbike": 6054,
      "Ġ94": 6055,
      "Ġbon": 6056,
      "ĠTheir": 6057,
      "Ġboy": 6058,
      "Ġlux": 6059,
      "ĠMake": 6060,
      "ĠDem": 6061,
      "unning": 6062,
      "Ġship": 6063,
      "Ġprocessing": 6064,
      "Ġcolour": 6065,
      "Ġcontinues": 6066,
      "Ġplastic": 6067,
      "ĠDown": 6068,
      "mann": 6069,
      "Ġdebt": 6070,
      "Ġtaste": 6071,
      "ba": 6072,
      "ĠWhy": 6073,
      "Ġcubic": 6074,
      "Ġdepending": 6075,
      "))\\,\\": 6076,
      "ranch": 6077,
      "Ġslope": 6078,
      "Ġdeck": 6079,
      "]]\\": 6080,
      "Ġneck": 6081,
      "Ġheads": 6082,
      "rest": 6083,
      "Ġartist": 6084,
      "ĠDefinition": 6085,
      "Ġhappened": 6086,
      "}})": 6087,
      "Your": 6088,
      "cles": 6089,
      "Ġvan": 6090,
      "Ġhouses": 6091,
      "Ġsouth": 6092,
      "rust": 6093,
      "Ġpencils": 6094,
      "Ġforeign": 6095,
      "Ġic": 6096,
      "icies": 6097,
      "ĠBecause": 6098,
      "09": 6099,
      "asure": 6100,
      "})$": 6101,
      "Ġperimeter": 6102,
      "ĠAM": 6103,
      "active": 6104,
      "*(\\": 6105,
      "Ġparalle": 6106,
      "Ġcore": 6107,
      "Ġnorth": 6108,
      "ĠCov": 6109,
      "Ġstone": 6110,
      "Ġpul": 6111,
      "ĠGeneral": 6112,
      "isl": 6113,
      "UR": 6114,
      "chain": 6115,
      "Ġbills": 6116,
      "115": 6117,
      "swers": 6118,
      "ception": 6119,
      "])\\": 6120,
      "ĠAfrica": 6121,
      "Ġblocks": 6122,
      "hour": 6123,
      "Ġsurg": 6124,
      "ĠIsrael": 6125,
      "Ġconfig": 6126,
      "Ġdecisions": 6127,
      "Ġgrade": 6128,
      "((\\": 6129,
      "Ġ97": 6130,
      "TS": 6131,
      "Ġrecommended": 6132,
      "Ġhang": 6133,
      "Ġvisual": 6134,
      "Ġdocuments": 6135,
      "ĠPR": 6136,
      "icians": 6137,
      "Ġsounds": 6138,
      "ĠRich": 6139,
      "Ġcommand": 6140,
      "Ġbecoming": 6141,
      "Ġsubsc": 6142,
      "Ġ&=": 6143,
      "ĠSal": 6144,
      "Ġagreement": 6145,
      "mar": 6146,
      "Ġmissing": 6147,
      "Ġwest": 6148,
      "Ġhospital": 6149,
      "Ġencourage": 6150,
      "ĠChristian": 6151,
      "Ġ210": 6152,
      "Ġflour": 6153,
      "Ġclim": 6154,
      "133": 6155,
      "Ġoranges": 6156,
      "inn": 6157,
      "Ġsources": 6158,
      "LC": 6159,
      "Ġconcent": 6160,
      "Ġcaused": 6161,
      "ĠApple": 6162,
      "ipp": 6163,
      "!)": 6164,
      "Ġfaster": 6165,
      "Ġwhatever": 6166,
      "En": 6167,
      "Ġcasino": 6168,
      "Ġmeal": 6169,
      "Ġexcited": 6170,
      "Ġaccur": 6171,
      "Ġspect": 6172,
      "Ġsch": 6173,
      "''\\": 6174,
      "ĠTur": 6175,
      "ĠCheck": 6176,
      "ĠOF": 6177,
      "Ġwatching": 6178,
      "Ġsurvey": 6179,
      "!*(": 6180,
      "Ġmanager": 6181,
      "essions": 6182,
      "ache": 6183,
      "ĠOpen": 6184,
      "Ġalternative": 6185,
      "OW": 6186,
      "Ġtea": 6187,
      "ĠEngine": 6188,
      "Ġexplain": 6189,
      "yer": 6190,
      "Ġfuel": 6191,
      "ĠCare": 6192,
      "Ġreference": 6193,
      "Ġshipping": 6194,
      "Ġtoward": 6195,
      "ooper": 6196,
      "])]": 6197,
      "Ġclaims": 6198,
      "Ġdining": 6199,
      "Ġconcise": 6200,
      "ered": 6201,
      "Ġerror": 6202,
      "ĠUse": 6203,
      "Ġimagin": 6204,
      "Ġfantastic": 6205,
      "Ġcities": 6206,
      "floor": 6207,
      "ĠLarge": 6208,
      "ĠPhot": 6209,
      "col": 6210,
      "Ġparam": 6211,
      "Ġtot": 6212,
      "Ġdoors": 6213,
      "Ġdesk": 6214,
      "Ġposts": 6215,
      "Ġdiagn": 6216,
      "Ġmeant": 6217,
      "Ġkid": 6218,
      "Ġwebsites": 6219,
      "Ġsenior": 6220,
      "Ġcalories": 6221,
      "ĠUSA": 6222,
      "product": 6223,
      "tra": 6224,
      "Ġtomat": 6225,
      "Ġdump": 6226,
      "Ġmarkets": 6227,
      "alley": 6228,
      "Ġfederal": 6229,
      "Ġperformed": 6230,
      "Ġupgra": 6231,
      "Ġdisapp": 6232,
      "Ġcoins": 6233,
      "Ġfocused": 6234,
      ")})": 6235,
      "Ġconsecutive": 6236,
      "Ġcorner": 6237,
      "anta": 6238,
      "Ġbreakfast": 6239,
      "Ġmanaged": 6240,
      "ĠPeople": 6241,
      "Ġwal": 6242,
      "Ġworry": 6243,
      "illa": 6244,
      "Ġremarkably": 6245,
      "_{-âĪŀ": 6246,
      "Ġinstr": 6247,
      "no": 6248,
      "ĠArch": 6249,
      "ĠDec": 6250,
      "132": 6251,
      "Ġcompare": 6252,
      "ĠMad": 6253,
      "ĠDirector": 6254,
      "arage": 6255,
      "ĠVis": 6256,
      "Ġlabor": 6257,
      "pted": 6258,
      "Ġbx": 6259,
      "1200": 6260,
      "|\\": 6261,
      "Ġfemale": 6262,
      "ĠPython": 6263,
      "ĠLife": 6264,
      "Are": 6265,
      "oma": 6266,
      "Ġdetail": 6267,
      "Ġkill": 6268,
      "noon": 6269,
      "ctors": 6270,
      "ĠÎ": 6271,
      "Ġtruck": 6272,
      "istration": 6273,
      "Ġages": 6274,
      "ĠAlthough": 6275,
      "lets": 6276,
      "ĠSing": 6277,
      "Ġenjoyed": 6278,
      "From": 6279,
      "Ġregistered": 6280,
      "state": 6281,
      "Ġsecret": 6282,
      "Ġmenu": 6283,
      "ĠVol": 6284,
      "asc": 6285,
      "Ġpanel": 6286,
      "ugging": 6287,
      "Ġthick": 6288,
      "ĠRepublic": 6289,
      "ĠAB": 6290,
      "water": 6291,
      "Ġinstalled": 6292,
      "Ġdepartment": 6293,
      "eries": 6294,
      "ĠâĢ¦": 6295,
      "Ġyards": 6296,
      "ĠMet": 6297,
      ")--(": 6298,
      "Ġhttp": 6299,
      "Ġevaluate": 6300,
      "Ġexciting": 6301,
      "Ġinjury": 6302,
      "ĠInverse": 6303,
      "osh": 6304,
      "Ġdozen": 6305,
      "issions": 6306,
      "Ġabsolutely": 6307,
      "126": 6308,
      "Hop": 6309,
      "DA": 6310,
      "ĠRock": 6311,
      "Ġmajority": 6312,
      "Ġ$]": 6313,
      "sub": 6314,
      "ĠBet": 6315,
      "Ġflu": 6316,
      "Ġnorm": 6317,
      "117": 6318,
      "Ġconclud": 6319,
      "Ġjoined": 6320,
      "Ġeffic": 6321,
      "ĠScience": 6322,
      "umin": 6323,
      "ĠSun": 6324,
      "Ġaffordable": 6325,
      "ĠEqu": 6326,
      "Ġestimat": 6327,
      "aj": 6328,
      "Ġrevenue": 6329,
      "Ġpresence": 6330,
      "ech": 6331,
      "ĠLou": 6332,
      "ĠIsland": 6333,
      "Ġincreases": 6334,
      "Ġshirts": 6335,
      "Ġlap": 6336,
      "Ġfixed": 6337,
      "ĠSet": 6338,
      "Ġmort": 6339,
      "Ġsavings": 6340,
      "Ġpolicies": 6341,
      "ĠTri": 6342,
      "Ġfacility": 6343,
      "Ġleadership": 6344,
      "Ġassistance": 6345,
      "ĠPhil": 6346,
      "ĠSur": 6347,
      "Ġdied": 6348,
      "Ġproperly": 6349,
      "Ġlocations": 6350,
      "ĠWater": 6351,
      "Ġisland": 6352,
      "ĠBer": 6353,
      "ĠEducation": 6354,
      "Ġreduced": 6355,
      "ÑĤ": 6356,
      "Ġcomprehens": 6357,
      "Ġunc": 6358,
      "Ġfewer": 6359,
      "Ġcitiz": 6360,
      "Ġcycle": 6361,
      "Ġrelationships": 6362,
      "atic": 6363,
      "Ñģ": 6364,
      "estic": 6365,
      "Ġsuitable": 6366,
      "standing": 6367,
      "pter": 6368,
      "ructure": 6369,
      "ĠLove": 6370,
      "Ġbehavior": 6371,
      "Ġshowed": 6372,
      "Ġsaved": 6373,
      "ildren": 6374,
      "ĠCong": 6375,
      "going": 6376,
      "Ġdistrict": 6377,
      "Ġì": 6378,
      "aves": 6379,
      "Ġdyn": 6380,
      "Ġdetailed": 6381,
      "ÑĢ": 6382,
      "Ġcombine": 6383,
      "ked": 6384,
      "ĠClick": 6385,
      "Ġpreviously": 6386,
      "Ġcats": 6387,
      "Ġartists": 6388,
      "ĠLord": 6389,
      "Ġpays": 6390,
      "angular": 6391,
      "reds": 6392,
      "ops": 6393,
      "=$<<": 6394,
      "amily": 6395,
      "Ġfear": 6396,
      "NA": 6397,
      "label": 6398,
      "ancing": 6399,
      "Ġnotes": 6400,
      "Ġeth": 6401,
      "ĠStar": 6402,
      "Ġpaying": 6403,
      "Ġautomatically": 6404,
      "ĠEnter": 6405,
      "Ġton": 6406,
      "ĠCarol": 6407,
      "ampions": 6408,
      "ĠDi": 6409,
      "ĠEngland": 6410,
      "Ġconcerns": 6411,
      "Ġfro": 6412,
      "Ġcorporate": 6413,
      "Ġprovider": 6414,
      "Ġexchange": 6415,
      "gn": 6416,
      "Ġtypically": 6417,
      "Cha": 6418,
      "gage": 6419,
      "Ġcris": 6420,
      "Ġgoods": 6421,
      "Thanks": 6422,
      "Ġbattery": 6423,
      "Ġmodul": 6424,
      "Ġfly": 6425,
      "Ġclearly": 6426,
      "Ġaccident": 6427,
      "Ġfunding": 6428,
      "Ġsupplies": 6429,
      "ĠAdding": 6430,
      "Ġtopic": 6431,
      "Ġillust": 6432,
      "Ġslightly": 6433,
      "Ġbowl": 6434,
      "Ġcontem": 6435,
      "arily": 6436,
      "168": 6437,
      "Ġcovers": 6438,
      "iliar": 6439,
      "Ġflight": 6440,
      "Ġwouldn": 6441,
      "Ġthoughts": 6442,
      "Ġimpos": 6443,
      "Ġstrategies": 6444,
      "Ġawesome": 6445,
      "Ġallowing": 6446,
      "Ġpainting": 6447,
      "Ġupdated": 6448,
      "son": 6449,
      "Ġdevelo": 6450,
      "Pascal": 6451,
      "Ġmode": 6452,
      "bl": 6453,
      "Ġdow": 6454,
      "erved": 6455,
      "Ġagency": 6456,
      "Ġrub": 6457,
      "Ġspecies": 6458,
      "Ġgeneration": 6459,
      "New": 6460,
      "Ġhab": 6461,
      "ĠTrump": 6462,
      "Ġnor": 6463,
      "Ġdial": 6464,
      "Ġputting": 6465,
      "----": 6466,
      "Ġmental": 6467,
      "outhern": 6468,
      "ĠBr": 6469,
      "Ġbusy": 6470,
      "Ġended": 6471,
      "IV": 6472,
      "Ġenvironmental": 6473,
      "Ġsym": 6474,
      "osis": 6475,
      "CC": 6476,
      "ultiplying": 6477,
      "terior": 6478,
      "fortunately": 6479,
      "*}": 6480,
      ")))**": 6481,
      "ĠCustom": 6482,
      "????": 6483,
      "Ġexponentiation": 6484,
      "Ġjoint": 6485,
      "ange": 6486,
      "Ĥ¬": 6487,
      "ĠJim": 6488,
      "pan": 6489,
      "Ġwww": 6490,
      "Ġow": 6491,
      "Ġhonest": 6492,
      "Ġdelivered": 6493,
      "Ġlights": 6494,
      "Ġactions": 6495,
      "Hopital": 6496,
      "Ġ220": 6497,
      "Ġdep": 6498,
      "lls": 6499,
      "olic": 6500,
      "paper": 6501,
      "how": 6502,
      "Ġvote": 6503,
      "reek": 6504,
      "Ġinput": 6505,
      "Ġ$$": 6506,
      "Ġpositions": 6507,
      "Ġresolution": 6508,
      "ĠYear": 6509,
      "Ġemployee": 6510,
      "othes": 6511,
      "Ġcolumn": 6512,
      "Ġchoosing": 6513,
      "inding": 6514,
      "ĠToday": 6515,
      "Ġwalls": 6516,
      "Ġje": 6517,
      "rative": 6518,
      "Ġlovely": 6519,
      "ĠPublic": 6520,
      "PR": 6521,
      "Ġafternoon": 6522,
      "Ġcategory": 6523,
      "ĠCommission": 6524,
      "Ġinternal": 6525,
      "Ġasking": 6526,
      "Ġconstruct": 6527,
      "Ġmanner": 6528,
      "uty": 6529,
      "ĠVe": 6530,
      "Ġarticles": 6531,
      "with": 6532,
      "Ġlaun": 6533,
      "}((-\\": 6534,
      "ĠWho": 6535,
      "cription": 6536,
      "ĠID": 6537,
      "Ġwilling": 6538,
      "Ġtests": 6539,
      "ĠNews": 6540,
      "Ġtrading": 6541,
      "Ġboat": 6542,
      "Ġreturned": 6543,
      "Some": 6544,
      "Ġeats": 6545,
      "Ġparticipants": 6546,
      "Ġexpertise": 6547,
      "ĠLear": 6548,
      "gal": 6549,
      "Ġscores": 6550,
      "esterday": 6551,
      "ĠSoci": 6552,
      "ĠPeter": 6553,
      "Ġsigns": 6554,
      "ĠCur": 6555,
      "Ġchips": 6556,
      "Ġtun": 6557,
      "Ġcentre": 6558,
      "made": 6559,
      "Ġunless": 6560,
      "ĠRet": 6561,
      "900": 6562,
      "Ġsymb": 6563,
      "Ġdanger": 6564,
      "ĠTim": 6565,
      "bour": 6566,
      "Ġoutput": 6567,
      "ĠTime": 6568,
      "Ġring": 6569,
      "rations": 6570,
      "Ġ126": 6571,
      "ĠProject": 6572,
      "ĠBlue": 6573,
      "Ġdivisor": 6574,
      "ĠGrand": 6575,
      "Ġplays": 6576,
      "_{-âĪŀ}^âĪŀ": 6577,
      "ĠLight": 6578,
      "Ġ133": 6579,
      "ructions": 6580,
      "life": 6581,
      "Ġlisten": 6582,
      "Ġcontext": 6583,
      "osition": 6584,
      "Ġreached": 6585,
      "Ġsandw": 6586,
      "Ġwheel": 6587,
      "ĠBig": 6588,
      "cean": 6589,
      "ĠOnline": 6590,
      "Ġresponsibility": 6591,
      "Ġimportance": 6592,
      ")}\\,": 6593,
      "ĠBeach": 6594,
      "ĠCommit": 6595,
      "Ġrap": 6596,
      "agon": 6597,
      "Ġphotograph": 6598,
      "enny": 6599,
      "\\%": 6600,
      "ĠCre": 6601,
      "ums": 6602,
      "Ġanimal": 6603,
      "ĠDri": 6604,
      "čĊ": 6605,
      "ĠDevelopment": 6606,
      "answer": 6607,
      "ervation": 6608,
      "Ġdelicious": 6609,
      "ĠWord": 6610,
      "poses": 6611,
      "Ġnine": 6612,
      "Ġgr": 6613,
      "ĠQue": 6614,
      "azine": 6615,
      "Des": 6616,
      "Ġaccompl": 6617,
      "ĠIts": 6618,
      "CH": 6619,
      "SS": 6620,
      "Ġtransform": 6621,
      "bi": 6622,
      "Ġrelatively": 6623,
      "ĠJour": 6624,
      "arn": 6625,
      "Ġcos": 6626,
      "Ġchemical": 6627,
      "Ġlabel": 6628,
      "Ġprepare": 6629,
      "Ġenhance": 6630,
      "Ġaspects": 6631,
      "Ġleads": 6632,
      "ĠTop": 6633,
      "ĠLu": 6634,
      "which": 6635,
      "Ġdiscussion": 6636,
      "Ġseats": 6637,
      "}[\\": 6638,
      "iences": 6639,
      "ician": 6640,
      "rain": 6641,
      "Ġiron": 6642,
      "Ġjournal": 6643,
      "Ġseek": 6644,
      "ĠCall": 6645,
      "Can": 6646,
      "ulated": 6647,
      "Ġoptim": 6648,
      "225": 6649,
      "Ġradio": 6650,
      "Ġliqu": 6651,
      "aked": 6652,
      "ĠAND": 6653,
      "Ġcalculating": 6654,
      "ĠTO": 6655,
      "lla": 6656,
      "})$,": 6657,
      "ĠRobert": 6658,
      "Ġproceed": 6659,
      "kin": 6660,
      "Ġ2006": 6661,
      "Ġtechnologies": 6662,
      "ĠThom": 6663,
      "list": 6664,
      "ibilities": 6665,
      "uries": 6666,
      "Ġassemb": 6667,
      "Ġcontribution": 6668,
      "Ġnav": 6669,
      "ĠOh": 6670,
      "ĠElect": 6671,
      "ĠMiss": 6672,
      "ĠCamp": 6673,
      "ĠAv": 6674,
      "Ġdrinks": 6675,
      "Ġhyd": 6676,
      "Ġlaws": 6677,
      "uman": 6678,
      "Ġinstance": 6679,
      "ĠMex": 6680,
      "ĠPay": 6681,
      "ugh": 6682,
      "Ġcivil": 6683,
      "Ġrecognize": 6684,
      "ĠJew": 6685,
      "Ġmostly": 6686,
      "Ġteach": 6687,
      "CA": 6688,
      "ĠCentral": 6689,
      "Ġtrial": 6690,
      "Ġspecifically": 6691,
      "ĠMer": 6692,
      "121": 6693,
      "ĠValley": 6694,
      "Why": 6695,
      "Ġinnovative": 6696,
      "Ġdisp": 6697,
      "IR": 6698,
      "Ġlayer": 6699,
      "Ġsaving": 6700,
      "Ġfavour": 6701,
      "Ġmovies": 6702,
      "Ġaccounts": 6703,
      "Ġadds": 6704,
      "Ġguys": 6705,
      "))*-": 6706,
      "ĠFoundation": 6707,
      "Ġseeds": 6708,
      "itness": 6709,
      "ĠSil": 6710,
      "Ġ2005": 6711,
      "ĠAmazon": 6712,
      "Ġresulting": 6713,
      "Ġcarried": 6714,
      "more": 6715,
      "ij": 6716,
      "Ġindustrial": 6717,
      "Ġreliable": 6718,
      "Ġkinds": 6719,
      "ĠParts": 6720,
      "Ġtables": 6721,
      "Ġacademic": 6722,
      "Ġinfo": 6723,
      "Ġends": 6724,
      "Ġ$(-\\": 6725,
      "oration": 6726,
      "rfloor": 6727,
      "lfloor": 6728,
      "Ġpurposes": 6729,
      "Ġanc": 6730,
      "ĠSand": 6731,
      "aks": 6732,
      "ĠPM": 6733,
      "Ġgather": 6734,
      "ĠTre": 6735,
      "Ġourselves": 6736,
      "ĠHist": 6737,
      "rome": 6738,
      "xture": 6739,
      "Ġgovern": 6740,
      "Ġdimens": 6741,
      "usion": 6742,
      "Ġpractical": 6743,
      "ĠSl": 6744,
      "men": 6745,
      "net": 6746,
      "Ġquot": 6747,
      "orthern": 6748,
      "olars": 6749,
      "rates": 6750,
      "can": 6751,
      "ĠConsider": 6752,
      "Ġsilver": 6753,
      "cious": 6754,
      "outs": 6755,
      "Ġanswers": 6756,
      "iability": 6757,
      "cohol": 6758,
      "rad": 6759,
      "iel": 6760,
      "nce": 6761,
      "|$,": 6762,
      "Ġhundreds": 6763,
      "ĠProfess": 6764,
      "BA": 6765,
      "antic": 6766,
      "ĠInteg": 6767,
      "ita": 6768,
      "ollow": 6769,
      "ĠSara": 6770,
      "Ġshower": 6771,
      "ario": 6772,
      "ÂŃ": 6773,
      "Thank": 6774,
      "Ġspaces": 6775,
      "ĠiPh": 6776,
      "Ġbrands": 6777,
      "what": 6778,
      "Ġrental": 6779,
      "Ġbuildings": 6780,
      "Ġcommitted": 6781,
      "yard": 6782,
      "Ġdance": 6783,
      "spe": 6784,
      "Ġproviders": 6785,
      "scape": 6786,
      "Ġbeat": 6787,
      "Ġsin": 6788,
      "Ġlicense": 6789,
      "abc": 6790,
      "ĠĠĠ": 6791,
      "Ġconfidence": 6792,
      "Ġpromote": 6793,
      "Ġda": 6794,
      "Ġscene": 6795,
      "Ġvisiting": 6796,
      "Ġdetect": 6797,
      "Ġpremium": 6798,
      "Ġwarrant": 6799,
      "ĠGlo": 6800,
      "Ġdatabase": 6801,
      "Ġcere": 6802,
      "Ð½": 6803,
      "ĠSolving": 6804,
      "Ġbirds": 6805,
      "Ġmotiv": 6806,
      "However": 6807,
      "Ġhighlight": 6808,
      "]$,": 6809,
      "Ġanywhere": 6810,
      "Not": 6811,
      "Ġfeedback": 6812,
      "ĠData": 6813,
      "Ġapartment": 6814,
      "but": 6815,
      "nged": 6816,
      "ifying": 6817,
      "ograp": 6818,
      "Ġroute": 6819,
      "Ġcrus": 6820,
      ")*(\\": 6821,
      "Ġdeals": 6822,
      "ender": 6823,
      "Ġ$\\$": 6824,
      "ĠHill": 6825,
      "Ġven": 6826,
      "Ġmessages": 6827,
      "ĠSine": 6828,
      "TH": 6829,
      "ĠCosine": 6830,
      "ags": 6831,
      "114": 6832,
      "ĠJul": 6833,
      "ĠWall": 6834,
      "Ġprofile": 6835,
      "Ġalternating": 6836,
      "Ġyield": 6837,
      "Ġinspir": 6838,
      "ĠMike": 6839,
      "flow": 6840,
      "Ġliters": 6841,
      "Ġblend": 6842,
      "ilit": 6843,
      "ye": 6844,
      "Ġguarantee": 6845,
      "Ġcultural": 6846,
      "ĠMel": 6847,
      "Ġplate": 6848,
      "west": 6849,
      "Ġstruggle": 6850,
      "Ġsalt": 6851,
      "Ġ225": 6852,
      "ĠPet": 6853,
      "friend": 6854,
      "Ġ216": 6855,
      "Ġsettings": 6856,
      "cis": 6857,
      "Ġchart": 6858,
      "Ġsupported": 6859,
      "Ġâī": 6860,
      "cher": 6861,
      "Ġclimate": 6862,
      "Ġcomprehensive": 6863,
      "ĠCommunity": 6864,
      "([[": 6865,
      "onds": 6866,
      "win": 6867,
      "oor": 6868,
      "ĠTor": 6869,
      "ĠPlugging": 6870,
      "ĠTeam": 6871,
      "Ġcoast": 6872,
      "))\\,": 6873,
      "Ġbrief": 6874,
      "Me": 6875,
      "*((-": 6876,
      "ulations": 6877,
      "Ġclothes": 6878,
      "Ġextend": 6879,
      "tered": 6880,
      "ĠGovernment": 6881,
      "ĠJoe": 6882,
      "Ġaudio": 6883,
      "Ġrise": 6884,
      "450": 6885,
      "Ġadvertising": 6886,
      "irgin": 6887,
      "ĠCommittee": 6888,
      "]]}\\": 6889,
      "ĠDistrict": 6890,
      "|{[[": 6891,
      "Ġshar": 6892,
      "Ġguest": 6893,
      "bers": 6894,
      "Ġ106": 6895,
      "Ġopinion": 6896,
      "ilding": 6897,
      "ĠCas": 6898,
      "Ġsitting": 6899,
      "Ġminor": 6900,
      "ĠChic": 6901,
      "^âĪŀ": 6902,
      "Ġoccurs": 6903,
      "Ġinfluence": 6904,
      "})^{": 6905,
      "},\\": 6906,
      "Ġ132": 6907,
      "hent": 6908,
      "Ġattor": 6909,
      "OD": 6910,
      "111": 6911,
      "Ġmidpoint": 6912,
      "rical": 6913,
      "175": 6914,
      "Ġinstant": 6915,
      "Ġproport": 6916,
      "Ġeventually": 6917,
      "Every": 6918,
      "ĠGeorge": 6919,
      "Ġexpenses": 6920,
      "Ġkg": 6921,
      "ĠMot": 6922,
      "Ġrealize": 6923,
      "Ġ114": 6924,
      "Ġcompetitive": 6925,
      "280": 6926,
      "}+\\": 6927,
      "ĠTem": 6928,
      "rastructure": 6929,
      "Ġequally": 6930,
      "ĠMaster": 6931,
      "Ġholding": 6932,
      "Ġvaluable": 6933,
      "Ġ116": 6934,
      "ĠFrank": 6935,
      "hi": 6936,
      "Ġdrawing": 6937,
      "fill": 6938,
      "{-\\": 6939,
      "Ġresource": 6940,
      "Ġspons": 6941,
      "roy": 6942,
      "quad": 6943,
      "ãĤ": 6944,
      "never": 6945,
      "}*(\\": 6946,
      "ĠSociety": 6947,
      "Ġtotally": 6948,
      "gers": 6949,
      "ĠFire": 6950,
      "ĠâĪŀ}": 6951,
      "320": 6952,
      "ĠMusic": 6953,
      "$).": 6954,
      "Ġreplacement": 6955,
      "156": 6956,
      "ĠIP": 6957,
      "Ġrestaurants": 6958,
      "Ġemergency": 6959,
      "192": 6960,
      "ĠAL": 6961,
      "Ġstars": 6962,
      "Ġpossibly": 6963,
      "Ġgun": 6964,
      "Ġtast": 6965,
      "orough": 6966,
      "otten": 6967,
      "ĠRel": 6968,
      "Ġsigned": 6969,
      "Acc": 6970,
      "Ġfle": 6971,
      "Ġpredict": 6972,
      "Ġdish": 6973,
      "rig": 6974,
      "Ġtight": 6975,
      "ãĥ": 6976,
      "ald": 6977,
      "Ġben": 6978,
      "Ġdespite": 6979,
      "Ġcyl": 6980,
      "ĠCalcul": 6981,
      "ĠSocial": 6982,
      "gorithm": 6983,
      "ĠTwitter": 6984,
      "itional": 6985,
      "Ġyouth": 6986,
      "Ġfields": 6987,
      "Ġcooking": 6988,
      "OP": 6989,
      "Ġthri": 6990,
      "ĠNor": 6991,
      "Ġfamiliar": 6992,
      "ĠIma": 6993,
      "ocks": 6994,
      "Ġhousing": 6995,
      "illy": 6996,
      "ĠMicrosoft": 6997,
      "{(\\": 6998,
      "ciate": 6999,
      "Ġconsumer": 7000,
      "Ġcutting": 7001,
      "Ġstret": 7002,
      "ĠKen": 7003,
      "ĠSpecial": 7004,
      "ints": 7005,
      "Ġcongru": 7006,
      "ometimes": 7007,
      "Ġgifts": 7008,
      "Ġteeth": 7009,
      "Ġextensive": 7010,
      "Ġchat": 7011,
      "Ġpound": 7012,
      "ĠInformation": 7013,
      "Ġinspired": 7014,
      "inch": 7015,
      "Ġbroken": 7016,
      "Ġho": 7017,
      "Ġment": 7018,
      "aser": 7019,
      "Ġimplies": 7020,
      "ya": 7021,
      "Ġinch": 7022,
      "Cont": 7023,
      "Ġinitially": 7024,
      "ĠAcadem": 7025,
      "opy": 7026,
      "Ġarrived": 7027,
      "SA": 7028,
      "nels": 7029,
      "Ġcir": 7030,
      "ulate": 7031,
      "Ġbringing": 7032,
      "Ġsympt": 7033,
      "IA": 7034,
      "Ġconsumers": 7035,
      "Ġconsists": 7036,
      "Ġconfir": 7037,
      "ĠBas": 7038,
      "aturing": 7039,
      "gl": 7040,
      "Each": 7041,
      "expected": 7042,
      "Ġexamples": 7043,
      "Ġcloud": 7044,
      "^{|": 7045,
      "Ġhearing": 7046,
      "apos": 7047,
      "Ġriver": 7048,
      "ĠCost": 7049,
      "stitution": 7050,
      "hire": 7051,
      "Ġlegisl": 7052,
      "ĠMax": 7053,
      "Ġapproved": 7054,
      "terns": 7055,
      "Ġreaders": 7056,
      "Ġcharged": 7057,
      "ĠPan": 7058,
      "ĠMill": 7059,
      "Ġap": 7060,
      "ceil": 7061,
      "Ġeducational": 7062,
      "rs": 7063,
      "Ġstanding": 7064,
      "ĠFrance": 7065,
      "Ġ...$),": 7066,
      "ĠHam": 7067,
      "ĠEv": 7068,
      "')": 7069,
      "Ġpsych": 7070,
      "Ġintended": 7071,
      "Ġintroduced": 7072,
      "Ġmachines": 7073,
      "ishing": 7074,
      "OC": 7075,
      "Ġmeals": 7076,
      "ĠLike": 7077,
      "td": 7078,
      "170": 7079,
      "ef": 7080,
      "ĠIdentity": 7081,
      "eper": 7082,
      "lict": 7083,
      "Ġath": 7084,
      "Ġdiameter": 7085,
      "iner": 7086,
      "Ġid": 7087,
      "ĠSen": 7088,
      "Ġpm": 7089,
      "}[(-\\": 7090,
      "ĠGerman": 7091,
      "Ġtherapy": 7092,
      "Ġchain": 7093,
      "Base": 7094,
      "pload": 7095,
      "Ġupdates": 7096,
      "Ġdrawn": 7097,
      "rors": 7098,
      "ĠSmith": 7099,
      "Ġjuice": 7100,
      "Ġinterests": 7101,
      "Ġempt": 7102,
      "Ġportion": 7103,
      "Greg": 7104,
      "Ġamb": 7105,
      "ĠSto": 7106,
      "Ġparab": 7107,
      "ĠWood": 7108,
      "RA": 7109,
      "Ġwalked": 7110,
      "Ġvio": 7111,
      "220": 7112,
      "Ġmanufacturing": 7113,
      "6666": 7114,
      "otic": 7115,
      "Ġtub": 7116,
      "Ġtasks": 7117,
      "atin": 7118,
      "ĠIde": 7119,
      "Ġdiscovered": 7120,
      "Ġrapid": 7121,
      "ucle": 7122,
      "Just": 7123,
      "bur": 7124,
      "Ġapps": 7125,
      "hetic": 7126,
      "Ġ2004": 7127,
      "ĠPress": 7128,
      "ĠWhether": 7129,
      "Ġshut": 7130,
      "ĠiPhone": 7131,
      "Ġimproved": 7132,
      "Ġbh": 7133,
      "Ġfeels": 7134,
      "Ġupper": 7135,
      "iemann": 7136,
      "700": 7137,
      "Ġcalling": 7138,
      "Ġeffectively": 7139,
      "wo": 7140,
      "ws": 7141,
      "ifications": 7142,
      "ĠHel": 7143,
      "]]$": 7144,
      "ĠAccording": 7145,
      "aper": 7146,
      "App": 7147,
      "ĠUN": 7148,
      "Ġforg": 7149,
      "Ġpayments": 7150,
      "ria": 7151,
      "ĠAndroid": 7152,
      "Ġshel": 7153,
      "fa": 7154,
      "ĠEarth": 7155,
      "icing": 7156,
      "ĠColor": 7157,
      "Ġsplit": 7158,
      "ĠGermany": 7159,
      "dis": 7160,
      "ini": 7161,
      "fined": 7162,
      "pression": 7163,
      "SE": 7164,
      "Ġpotat": 7165,
      "ĠRead": 7166,
      "orter": 7167,
      "ĠTaking": 7168,
      "Ġauto": 7169,
      "Ġ123": 7170,
      "idential": 7171,
      "ĠSecurity": 7172,
      "Ġmatters": 7173,
      "ponential": 7174,
      "ander": 7175,
      "rupt": 7176,
      "Ġgri": 7177,
      "ĠCentre": 7178,
      "Ġagent": 7179,
      "Fund": 7180,
      "pie": 7181,
      "han": 7182,
      "Ġsurf": 7183,
      "ĠCard": 7184,
      "Ġlighting": 7185,
      "Ġresearc": 7186,
      "estyle": 7187,
      "ĠBoth": 7188,
      "ĠMultiplying": 7189,
      "Ġsauce": 7190,
      "ura": 7191,
      "Put": 7192,
      "Ġhun": 7193,
      "),$": 7194,
      "phas": 7195,
      "ĠReal": 7196,
      "Ġappreciate": 7197,
      "Ġhorse": 7198,
      "Ġtaxes": 7199,
      "Ġintellig": 7200,
      "Ġhoriz": 7201,
      "Ġcoach": 7202,
      "Ġefficiency": 7203,
      "Ġsessions": 7204,
      "ENT": 7205,
      "Ġprotein": 7206,
      "Ġoriginally": 7207,
      "Ġremote": 7208,
      "Ġhire": 7209,
      "yan": 7210,
      "Ġvacation": 7211,
      "bing": 7212,
      "Ġnovel": 7213,
      "Ġannounce": 7214,
      "riage": 7215,
      "mosp": 7216,
      "oga": 7217,
      "Ġlaunched": 7218,
      "[\\": 7219,
      "Ġcandidates": 7220,
      "dule": 7221,
      "Ġcircumst": 7222,
      "Ġcommitment": 7223,
      "ricult": 7224,
      "ĠAD": 7225,
      "[$": 7226,
      "weight": 7227,
      "Ġseemed": 7228,
      "agram": 7229,
      "Ġconvenient": 7230,
      "Ġwhom": 7231,
      "ĠJose": 7232,
      "berry": 7233,
      "Ġdrivers": 7234,
      "Ġdoubt": 7235,
      "Ġaccurate": 7236,
      "Ġ124": 7237,
      "oster": 7238,
      "urban": 7239,
      "etry": 7240,
      "Ġinstructions": 7241,
      "Ġdesire": 7242,
      "Ġregularly": 7243,
      "153": 7244,
      "Ġsixth": 7245,
      "Ġoccasion": 7246,
      "Ġkick": 7247,
      "Ġremind": 7248,
      "Ġsurgery": 7249,
      "arct": 7250,
      "Ġappearance": 7251,
      "Ġshirt": 7252,
      "ĠDiv": 7253,
      "Ġsupporting": 7254,
      "road": 7255,
      "aren": 7256,
      "ĠZe": 7257,
      "Ġshares": 7258,
      "Ġturns": 7259,
      "cm": 7260,
      "Ġtip": 7261,
      "pel": 7262,
      "Ġcompar": 7263,
      "Ġtrac": 7264,
      "Ġbigger": 7265,
      "ĠTake": 7266,
      "mari": 7267,
      "Ġadministration": 7268,
      "ask": 7269,
      "ĠNumbers": 7270,
      "Ġuniversity": 7271,
      "ulty": 7272,
      "Ġcorn": 7273,
      "bert": 7274,
      "Ġinvolve": 7275,
      "war": 7276,
      "ĠLo": 7277,
      "Ġ...\\": 7278,
      "Ġvs": 7279,
      "Ġmine": 7280,
      "ĠBur": 7281,
      "Ġorange": 7282,
      "Ġaid": 7283,
      "480": 7284,
      "enty": 7285,
      "Ġrows": 7286,
      "Ġpackages": 7287,
      "Don": 7288,
      "Ġprocedure": 7289,
      "Ġquiet": 7290,
      "uzz": 7291,
      "vmatrix": 7292,
      "âĦ": 7293,
      "Then": 7294,
      "Ġglad": 7295,
      "Ġkeeps": 7296,
      "ĠLim": 7297,
      "Ġwearing": 7298,
      "Ġelectronic": 7299,
      "ala": 7300,
      "Get": 7301,
      "ĠHD": 7302,
      "Ġsignificantly": 7303,
      "Ġgarage": 7304,
      "Ġattended": 7305,
      "ĠNOT": 7306,
      "iveness": 7307,
      "Se": 7308,
      "Ġsurrounding": 7309,
      "Ġrational": 7310,
      "Ġlinear": 7311,
      "Ġclinical": 7312,
      "Ġlived": 7313,
      "berries": 7314,
      "IF": 7315,
      "suit": 7316,
      "Ġadvis": 7317,
      "ĠYes": 7318,
      "eration": 7319,
      "ĠDownload": 7320,
      "Ġbelong": 7321,
      "147": 7322,
      "Ġ168": 7323,
      "123": 7324,
      "Ġclassroom": 7325,
      "ĠMach": 7326,
      "Ġconflict": 7327,
      "ĠMuseum": 7328,
      "Ġfailure": 7329,
      "Ġcommittee": 7330,
      "ruit": 7331,
      "Ġdot": 7332,
      "ĠRad": 7333,
      "Ġassets": 7334,
      "Ġappointment": 7335,
      "ĠChicago": 7336,
      "Ġfoods": 7337,
      "Ġpock": 7338,
      "Ġengineering": 7339,
      "Ġmountain": 7340,
      "Ġparticipate": 7341,
      "Ġphil": 7342,
      "Ġseeking": 7343,
      "Ġreceiving": 7344,
      "II": 7345,
      "rings": 7346,
      "Ġwash": 7347,
      "Ġperfectly": 7348,
      "Ġassume": 7349,
      "Ġdefend": 7350,
      "ĠHave": 7351,
      "ĠTechnology": 7352,
      "Ġboost": 7353,
      "Ġreput": 7354,
      "Ġalgorithm": 7355,
      "Ġwalks": 7356,
      "umps": 7357,
      "Ġagg": 7358,
      "bre": 7359,
      "SP": 7360,
      "alse": 7361,
      "prene": 7362,
      "idden": 7363,
      "ĠOR": 7364,
      "Ġsad": 7365,
      "adian": 7366,
      "binomial": 7367,
      "Ġdestination": 7368,
      "ĠNY": 7369,
      "Ġtrained": 7370,
      "Ġjar": 7371,
      "ĠJournal": 7372,
      "ĠVict": 7373,
      "Ġpure": 7374,
      "Ġsolar": 7375,
      "arsh": 7376,
      "Ġplanned": 7377,
      "ulous": 7378,
      "Ġpresentation": 7379,
      "Ġagreed": 7380,
      "Ġ103": 7381,
      "Ġexternal": 7382,
      "icial": 7383,
      "itar": 7384,
      "incip": 7385,
      "Ġcauses": 7386,
      "ingu": 7387,
      "bel": 7388,
      "Ġjoy": 7389,
      "Ġtopics": 7390,
      "Ġcreation": 7391,
      "oe": 7392,
      "Â°": 7393,
      "Ġsheet": 7394,
      "Us": 7395,
      "Ġrectangular": 7396,
      "Ġapple": 7397,
      "ira": 7398,
      "Once": 7399,
      "Ġowned": 7400,
      "Ġbegins": 7401,
      "216": 7402,
      "ĠUnion": 7403,
      "136": 7404,
      "Ġexceed": 7405,
      "Ġcomponent": 7406,
      "ĠParty": 7407,
      "othe": 7408,
      "ĠMass": 7409,
      "alian": 7410,
      "cakes": 7411,
      "Ġincredible": 7412,
      "burg": 7413,
      "reprene": 7414,
      "Ġpatterns": 7415,
      "Ġissued": 7416,
      "ĠHa": 7417,
      "Ġfreed": 7418,
      "Ġ117": 7419,
      "Ġtells": 7420,
      "Ġrecorded": 7421,
      "Ġregistration": 7422,
      "Ġmixed": 7423,
      "ï¼": 7424,
      "Ġguy": 7425,
      "Ġconsequ": 7426,
      "ĠDemoc": 7427,
      "119": 7428,
      "Ġpacks": 7429,
      "ĠYOU": 7430,
      "Ġknowing": 7431,
      "Ġperspective": 7432,
      "Different": 7433,
      "icular": 7434,
      "ias": 7435,
      "Ġrecovery": 7436,
      "ĠPen": 7437,
      "Ġcitizens": 7438,
      "idents": 7439,
      "Distrib": 7440,
      "Ġsevent": 7441,
      "Ġidentified": 7442,
      "atan": 7443,
      "Ġbuck": 7444,
      "}((-": 7445,
      "Ġcott": 7446,
      "Ġ!": 7447,
      "Ġvit": 7448,
      "Ġnone": 7449,
      "ohn": 7450,
      "ĠSqu": 7451,
      "ĠIndust": 7452,
      "alog": 7453,
      "Ġdating": 7454,
      "ĠOnly": 7455,
      "Ġunivers": 7456,
      "Ġwinner": 7457,
      "Ġ192": 7458,
      "Ġexcess": 7459,
      "Ġpens": 7460,
      "Ġ121": 7461,
      "âĦ¢": 7462,
      "\\}$,": 7463,
      "Ġlens": 7464,
      "Ġscript": 7465,
      "real": 7466,
      "Ġinfrastructure": 7467,
      "Ġstream": 7468,
      "âĢĻ.": 7469,
      "Subtract": 7470,
      "Ġchannel": 7471,
      "definition": 7472,
      "Ġatmosp": 7473,
      "Ġhundred": 7474,
      "istan": 7475,
      "ĠGamma": 7476,
      "Ġtut": 7477,
      "ĠSecond": 7478,
      "Ġdepends": 7479,
      "Ġmarried": 7480,
      "igation": 7481,
      "Ġtough": 7482,
      "Ġ@": 7483,
      "Ġreturns": 7484,
      "ĠWestern": 7485,
      "Ġcloser": 7486,
      "176": 7487,
      "Ġnurs": 7488,
      "ĠCalculus": 7489,
      "Ġgrown": 7490,
      "ails": 7491,
      "Ġpassing": 7492,
      "Ġdisci": 7493,
      "Ġviol": 7494,
      "Ġsocks": 7495,
      "ĠScott": 7496,
      "})/": 7497,
      "Ġyounger": 7498,
      "Ġsuccessfully": 7499,
      "iest": 7500,
      "Ġmale": 7501,
      "Ġconversation": 7502,
      "acent": 7503,
      "Ġdecades": 7504,
      "Ġsignal": 7505,
      "Ġnormally": 7506,
      "Ġdepth": 7507,
      "Ġtraveled": 7508,
      "Ġpig": 7509,
      "Ġblow": 7510,
      "rum": 7511,
      "Ġreasonable": 7512,
      "ĠBack": 7513,
      "Ġextended": 7514,
      "Ġ|{": 7515,
      "Ġearns": 7516,
      "minal": 7517,
      "erts": 7518,
      "berg": 7519,
      "ĠDig": 7520,
      "Ġextract": 7521,
      "ĠOl": 7522,
      "Ġexponents": 7523,
      "Ġaccepted": 7524,
      "Ġbattle": 7525,
      "Ġrepresentation": 7526,
      "Ġ320": 7527,
      "Ġcontainer": 7528,
      "Ġjack": 7529,
      "''''(": 7530,
      "ĠAtl": 7531,
      "Yes": 7532,
      "ĠStart": 7533,
      "350": 7534,
      "Distributive": 7535,
      "Ø§": 7536,
      "Ġprepar": 7537,
      "jection": 7538,
      "Ġcommission": 7539,
      "Ġleather": 7540,
      "ĠVer": 7541,
      "Chain": 7542,
      "Ġcancel": 7543,
      "SC": 7544,
      "Ġprocedures": 7545,
      "ially": 7546,
      "Ġpink": 7547,
      "Ġstamps": 7548,
      "}}*": 7549,
      "Ġacid": 7550,
      "Ġsphere": 7551,
      "then": 7552,
      "ĠAnother": 7553,
      "Ġphase": 7554,
      "Ġbonus": 7555,
      "Ġorganic": 7556,
      "orry": 7557,
      "Ġalcohol": 7558,
      "Ġtreated": 7559,
      "ĠAT": 7560,
      "Ġmini": 7561,
      "Ġparallel": 7562,
      "Ġconj": 7563,
      "Ġyes": 7564,
      "Ġ136": 7565,
      "Ġtaught": 7566,
      "Ġearnings": 7567,
      "Ġ350": 7568,
      "ĠMP": 7569,
      "Ġaffected": 7570,
      "Ġdollar": 7571,
      "Ġrh": 7572,
      "Ġassessment": 7573,
      "Ġmouth": 7574,
      "Ġlicens": 7575,
      "Ġ256": 7576,
      "Ġelig": 7577,
      "Integration": 7578,
      "Ġproposed": 7579,
      "Ġ156": 7580,
      "ĠAfrican": 7581,
      "ĠOrgan": 7582,
      "Ġvend": 7583,
      "Ġdrives": 7584,
      "Ġmarks": 7585,
      "ĠShow": 7586,
      "Ġvillage": 7587,
      "ĠCert": 7588,
      "UT": 7589,
      "gend": 7590,
      "Ġpasses": 7591,
      "Ġperman": 7592,
      "ĠMedical": 7593,
      "ĠHotel": 7594,
      "Gregory": 7595,
      "entation": 7596,
      "ĠReview": 7597,
      "Ġweighs": 7598,
      "Ġappreci": 7599,
      "Ġliquid": 7600,
      "Ġsymptoms": 7601,
      "ĠVirgin": 7602,
      "Fundamental": 7603,
      "nergy": 7604,
      "axis": 7605,
      "odies": 7606,
      "Quotient": 7607,
      "Ġmir": 7608,
      "Ġemphas": 7609,
      "lete": 7610,
      "Ġgrass": 7611,
      "Ġbear": 7612,
      "Integral": 7613,
      "Ġyesterday": 7614,
      "Ġ107": 7615,
      "rugs": 7616,
      "ora": 7617,
      "Leibnitz": 7618,
      "))}$": 7619,
      "Ġcalculator": 7620,
      "abet": 7621,
      "Ġclothing": 7622,
      "Ġparabola": 7623,
      "Ġgolf": 7624,
      "Ġwriter": 7625,
      "poration": 7626,
      "Ġsalary": 7627,
      "coordinate": 7628,
      "Ġrepeated": 7629,
      "together": 7630,
      "Ġcarefully": 7631,
      "Ġegg": 7632,
      "Quadratic": 7633,
      "Ġoblig": 7634,
      "Ġscientific": 7635,
      "Ġcontemporary": 7636,
      "ĠLtd": 7637,
      "atre": 7638,
      "ĠPlus": 7639,
      "}+": 7640,
      "Ġofficials": 7641,
      "Ġbreath": 7642,
      "Che": 7643,
      "Ġcf": 7644,
      "ĠCat": 7645,
      "ateral": 7646,
      "dow": 7647,
      "Ġhardware": 7648,
      "270": 7649,
      "vation": 7650,
      "Ġdiscl": 7651,
      "Ġneighborhood": 7652,
      "urious": 7653,
      "ua": 7654,
      "quadratic": 7655,
      "Basel": 7656,
      "ĠLast": 7657,
      "Ġhosting": 7658,
      "Ġconstantly": 7659,
      "Set": 7660,
      "Ġserves": 7661,
      "ii": 7662,
      "Leibniz": 7663,
      "Ġfailed": 7664,
      "Ġyard": 7665,
      "}}$,": 7666,
      "augh": 7667,
      "cling": 7668,
      "ĠFund": 7669,
      "ĠTest": 7670,
      "Ġinvestors": 7671,
      "Ġthread": 7672,
      "days": 7673,
      "Ġfrequently": 7674,
      "Ġgeometric": 7675,
      "Ġhistorical": 7676,
      "Ġoverl": 7677,
      "Ġfort": 7678,
      "Ġ2003": 7679,
      "AG": 7680,
      "Ġimprovement": 7681,
      "fg": 7682,
      "Ð¾Ð": 7683,
      "Ġjelly": 7684,
      "*\\|": 7685,
      "heses": 7686,
      "ĠFamily": 7687,
      "162": 7688,
      "Ġnegot": 7689,
      "Differentiation": 7690,
      "Ġhappening": 7691,
      "dden": 7692,
      "].": 7693,
      "erves": 7694,
      "Ġtriple": 7695,
      "Ġinvent": 7696,
      "Ġsituations": 7697,
      "Ġstudio": 7698,
      "Ġresidential": 7699,
      "while": 7700,
      "!*": 7701,
      "olving": 7702,
      "Ġtypical": 7703,
      "ĠAward": 7704,
      "ĠTer": 7705,
      "azz": 7706,
      "ĠStand": 7707,
      "Ġworldwide": 7708,
      "enced": 7709,
      "Ã¡": 7710,
      "irty": 7711,
      "Ġ170": 7712,
      "Ġtiss": 7713,
      "ĠCongress": 7714,
      "ĠDen": 7715,
      "Ġsupports": 7716,
      "ĠLong": 7717,
      "ĠExper": 7718,
      "cycle": 7719,
      "rank": 7720,
      "Ġlessons": 7721,
      "ificate": 7722,
      "ĠTour": 7723,
      "arian": 7724,
      "Ġforces": 7725,
      "pire": 7726,
      "ĠRE": 7727,
      "ĠArts": 7728,
      "Ġvegetables": 7729,
      "Ġtoys": 7730,
      "Ġlowest": 7731,
      "Ġgroc": 7732,
      "Ġking": 7733,
      "isters": 7734,
      "Ġstated": 7735,
      "Ġhyper": 7736,
      "Ġbird": 7737,
      "Ġpipe": 7738,
      "Ġmatches": 7739,
      "Ġmixture": 7740,
      "stone": 7741,
      "Ġprivacy": 7742,
      "ĠFrancis": 7743,
      "Ġ900": 7744,
      "Ġuns": 7745,
      "sword": 7746,
      "third": 7747,
      "Sp": 7748,
      "ĠNetwork": 7749,
      "Ġcrack": 7750,
      "ĠCa": 7751,
      "Ġconcerned": 7752,
      "Ġbeans": 7753,
      "Ġretain": 7754,
      "Ġec": 7755,
      "165": 7756,
      "cret": 7757,
      "Ġluxury": 7758,
      "Ġvib": 7759,
      "According": 7760,
      "Any": 7761,
      "Ġempty": 7762,
      "Ġconducted": 7763,
      "Ġease": 7764,
      "Ġappeared": 7765,
      "erg": 7766,
      "kins": 7767,
      "|}\\": 7768,
      "ĠSpring": 7769,
      "Ġ165": 7770,
      "Ġ109": 7771,
      "Ġsubmit": 7772,
      "Ġstyles": 7773,
      "ĠHosp": 7774,
      "Ġ118": 7775,
      "Ġauthent": 7776,
      "ĠAsia": 7777,
      "Ġawareness": 7778,
      "Ġgrew": 7779,
      "Ġcontaining": 7780,
      "Ġur": 7781,
      "Ġmissed": 7782,
      "ĠLeague": 7783,
      "Ġsole": 7784,
      "Ġcable": 7785,
      "Ġdefault": 7786,
      "Ġped": 7787,
      "Ġtenth": 7788,
      "Ġherself": 7789,
      "190": 7790,
      "Ġneither": 7791,
      "Ġagencies": 7792,
      "isa": 7793,
      "sible": 7794,
      "Ġskill": 7795,
      "ĠAustralian": 7796,
      "jo": 7797,
      "Ġmodulo": 7798,
      "Ġelection": 7799,
      "ĠSpan": 7800,
      "ppers": 7801,
      "ĠThomas": 7802,
      "ĠLos": 7803,
      "Ġexpectations": 7804,
      "Ġsac": 7805,
      "Ġusual": 7806,
      "Ġ122": 7807,
      "Many": 7808,
      "mod": 7809,
      "Ġsearching": 7810,
      "ĠJapanese": 7811,
      "Ġcoc": 7812,
      "Ġrice": 7813,
      "ĠMarket": 7814,
      "Sine": 7815,
      "Ġmuseum": 7816,
      "Ġemployment": 7817,
      "ĠSoft": 7818,
      "Ġtrips": 7819,
      ")}}": 7820,
      "Ġhall": 7821,
      "Ġsupposed": 7822,
      "arctan": 7823,
      "252": 7824,
      "Ġborrow": 7825,
      "Ġfactory": 7826,
      "Ġconcrete": 7827,
      "Ġcontribute": 7828,
      "Ġcombinations": 7829,
      "ĠInvest": 7830,
      "ĠComb": 7831,
      "pass": 7832,
      "Pre": 7833,
      "Ġamounts": 7834,
      "ennis": 7835,
      "Ġtrouble": 7836,
      "ĠBi": 7837,
      "Ġtab": 7838,
      "Ġscan": 7839,
      "Ġcircumstances": 7840,
      "related": 7841,
      "Ġalle": 7842,
      "ĠON": 7843,
      "Ġtelevision": 7844,
      "Ġengage": 7845,
      "cript": 7846,
      "Ġfoundation": 7847,
      "Ġinstitutions": 7848,
      "Ġdelight": 7849,
      "ilst": 7850,
      "ĠInstead": 7851,
      "ĠInt": 7852,
      "Res": 7853,
      "ĠEU": 7854,
      "tri": 7855,
      "Ġrecy": 7856,
      "Ġairport": 7857,
      "ĠBud": 7858,
      "Ġdesired": 7859,
      "hus": 7860,
      "Ġvictim": 7861,
      "Ġsevere": 7862,
      "Ġrecover": 7863,
      "%,": 7864,
      "ĠCond": 7865,
      "Ġloans": 7866,
      "ether": 7867,
      "ĠOld": 7868,
      "vy": 7869,
      "Ġsubstant": 7870,
      "Ġdivisors": 7871,
      "Ġnoted": 7872,
      "idance": 7873,
      "Ġbasketball": 7874,
      "orable": 7875,
      "Ġmeetings": 7876,
      "Ġspeaking": 7877,
      "ĠOffic": 7878,
      "Ġballoons": 7879,
      "Ġwheels": 7880,
      "Ġthorough": 7881,
      "Ġdiss": 7882,
      "Ġaccessible": 7883,
      "Ġlands": 7884,
      "ĠJud": 7885,
      "week": 7886,
      "Ġinspiration": 7887,
      "Ġweak": 7888,
      "ĠBefore": 7889,
      "Ġchallenging": 7890,
      "igan": 7891,
      "Ġupcoming": 7892,
      "Ġbless": 7893,
      "Ġconsistent": 7894,
      "Ġpants": 7895,
      "Ġstain": 7896,
      "171": 7897,
      "Ġeveryday": 7898,
      "ĠWhere": 7899,
      "124": 7900,
      "Ġindex": 7901,
      "Ġpregn": 7902,
      "Ġnearby": 7903,
      "ĠBrown": 7904,
      "Ġscheduled": 7905,
      "ĠContact": 7906,
      "Ġfilter": 7907,
      "sm": 7908,
      "Ġintegrated": 7909,
      "oral": 7910,
      "Ġpublish": 7911,
      "Ġqualified": 7912,
      "ĠHead": 7913,
      "Ġplates": 7914,
      "ĠChair": 7915,
      "Cosine": 7916,
      "Ġbrowser": 7917,
      "Ġimagine": 7918,
      ")^\\": 7919,
      "Ġarra": 7920,
      "Ġoutcome": 7921,
      "Ġstands": 7922,
      "asts": 7923,
      "ĠFood": 7924,
      "Ġeast": 7925,
      "AY": 7926,
      "arcc": 7927,
      "Ġlandscape": 7928,
      "Ġcandies": 7929,
      "igration": 7930,
      "Ġinnovation": 7931,
      "Ġarrive": 7932,
      "Ġhealthcare": 7933,
      "Ġcreates": 7934,
      "720": 7935,
      "ĠBC": 7936,
      "Am": 7937,
      "umes": 7938,
      "Ġfruits": 7939,
      "ersey": 7940,
      "ikes": 7941,
      "Ġfra": 7942,
      "Ġlemon": 7943,
      ")-": 7944,
      "Ġpun": 7945,
      "Ġscholars": 7946,
      "Ġanxi": 7947,
      "ĠLand": 7948,
      "va": 7949,
      "bra": 7950,
      "Ġoperator": 7951,
      "ĠFil": 7952,
      "Ġimpressive": 7953,
      "Ġdiverse": 7954,
      "Ġentirely": 7955,
      "Ġweekly": 7956,
      "Ġtom": 7957,
      "152": 7958,
      "acos": 7959,
      "Ġentertainment": 7960,
      "ĠAud": 7961,
      "Ġoutstanding": 7962,
      "ĠHen": 7963,
      "Ġ113": 7964,
      "ĠMedia": 7965,
      "ĠDou": 7966,
      "ĠProv": 7967,
      "Ġcompens": 7968,
      "Ġstring": 7969,
      "ML": 7970,
      "Ġrail": 7971,
      "you": 7972,
      "UN": 7973,
      "Ġ450": 7974,
      "Ġexecutive": 7975,
      "Ġresum": 7976,
      "ĠConference": 7977,
      "Ġmassive": 7978,
      "Ġpill": 7979,
      "ĠCA": 7980,
      "âĪĴ": 7981,
      "ĠCross": 7982,
      "Ġquarters": 7983,
      "Ġeleg": 7984,
      "ĠCEO": 7985,
      "ackson": 7986,
      "ĠThrough": 7987,
      "PC": 7988,
      "rim": 7989,
      "Ġreplaced": 7990,
      "Ġfacilit": 7991,
      "Ġdivers": 7992,
      "ĠRight": 7993,
      "Ġemotional": 7994,
      "Ġregional": 7995,
      "Ġoperate": 7996,
      "ena": 7997,
      "iers": 7998,
      "Ġ1200": 7999,
      "Ġsoil": 8000,
      "Last": 8001,
      "Ġarrangements": 8002,
      "Ġinterface": 8003,
      "Ġfo": 8004,
      "person": 8005,
      "116": 8006,
      "ĠMatt": 8007,
      "Ġfishing": 8008,
      "Ġtechnique": 8009,
      "Ġmotion": 8010,
      "Ġdescription": 8011,
      "Ġwealth": 8012,
      "tle": 8013,
      "total": 8014,
      "*{": 8015,
      "Ġparentheses": 8016,
      "ĠLog": 8017,
      "hors": 8018,
      "Ġfeatured": 8019,
      "MA": 8020,
      "osoph": 8021,
      "allet": 8022,
      "Bl": 8023,
      "style": 8024,
      "Ġsoda": 8025,
      "Ġtemplate": 8026,
      "Ġoccup": 8027,
      "arccos": 8028,
      "Ġtrick": 8029,
      "EE": 8030,
      "Ġshots": 8031,
      "Ġpapers": 8032,
      "ĠGall": 8033,
      "ĠGlobal": 8034,
      "Ġema": 8035,
      "Ġgear": 8036,
      "Ġcarbon": 8037,
      "Another": 8038,
      "ĠJeff": 8039,
      "Ġpad": 8040,
      "Ġcontest": 8041,
      "Ġspots": 8042,
      "olved": 8043,
      "Ġ119": 8044,
      "Ġseed": 8045,
      "Ġflexible": 8046,
      "Ġtourn": 8047,
      "Ġvital": 8048,
      "rity": 8049,
      "Ġcher": 8050,
      "Ġmedicine": 8051,
      "Ġcandidate": 8052,
      "Ġham": 8053,
      "elcome": 8054,
      "Ġpil": 8055,
      "Ġweap": 8056,
      "ĠPerson": 8057,
      "103": 8058,
      "Ġcro": 8059,
      "ĠManager": 8060,
      "osa": 8061,
      "Ġstopped": 8062,
      "ĠSteve": 8063,
      "Ġimplementation": 8064,
      "Ġcurve": 8065,
      "ĠFre": 8066,
      "Ġroutine": 8067,
      "uan": 8068,
      "Ġvisited": 8069,
      "BS": 8070,
      "Ġnin": 8071,
      "diction": 8072,
      "cknow": 8073,
      "Ġprop": 8074,
      "gg": 8075,
      "Ġcontrast": 8076,
      "Ġstunning": 8077,
      "Ġmoist": 8078,
      "Ġdraft": 8079,
      "Most": 8080,
      "anda": 8081,
      "ĠVictor": 8082,
      "ABC": 8083,
      "Ġclosely": 8084,
      "apping": 8085,
      "Ġpoll": 8086,
      "Ġconclude": 8087,
      "ushing": 8088,
      "Ġmoves": 8089,
      "Ġagents": 8090,
      "Ġmembership": 8091,
      "Ġloves": 8092,
      "arcsin": 8093,
      "Ġkilomet": 8094,
      "ĠList": 8095,
      "ĠWal": 8096,
      "Ġedition": 8097,
      "Ġnoticed": 8098,
      "Ġhole": 8099,
      "Ġmanual": 8100,
      "ĠNE": 8101,
      "Ġ162": 8102,
      "Ġcooper": 8103,
      "ĠUnder": 8104,
      "ĠÃĹ": 8105,
      "288": 8106,
      "Ġdrugs": 8107,
      "Ġstraw": 8108,
      "Ġbelief": 8109,
      "Ġindeed": 8110,
      "Ġlifestyle": 8111,
      "Ġcapable": 8112,
      "Ġlad": 8113,
      "ĠIr": 8114,
      "Ġrisks": 8115,
      "asant": 8116,
      "ĠGal": 8117,
      "Ġunf": 8118,
      "Ġmonitoring": 8119,
      "Ġlikes": 8120,
      "lis": 8121,
      "Ġ280": 8122,
      "ĠLead": 8123,
      "Ġreward": 8124,
      "Ġba": 8125,
      "Ġfloors": 8126,
      "ĠTable": 8127,
      "Ġ138": 8128,
      "Ġrough": 8129,
      "Ġtooth": 8130,
      "Ġburn": 8131,
      "Ġregardless": 8132,
      "from": 8133,
      "Ġmanufacturer": 8134,
      "Tra": 8135,
      "Ġinvited": 8136,
      "Ġinformed": 8137,
      "Ġtiles": 8138,
      "Ke": 8139,
      "Ġentered": 8140,
      "ĠMaybe": 8141,
      "*(-\\": 8142,
      "Ġscr": 8143,
      "inating": 8144,
      "Ġdad": 8145,
      "rency": 8146,
      "CT": 8147,
      "Ġ%": 8148,
      "Ġwrit": 8149,
      "Ġfacing": 8150,
      "Ġgenerate": 8151,
      "igned": 8152,
      "ĠGen": 8153,
      "Ġwra": 8154,
      "ĠDef": 8155,
      "Ġsimplified": 8156,
      "Ġfreedom": 8157,
      "ĠMiddle": 8158,
      "ĠControl": 8159,
      "ework": 8160,
      "ĠKeep": 8161,
      "Ġvirtual": 8162,
      "ĠHy": 8163,
      "ĠAmericans": 8164,
      "Ġvertical": 8165,
      "orgeous": 8166,
      "Ġfinds": 8167,
      "Over": 8168,
      "Ġprotected": 8169,
      "Ġofficers": 8170,
      "Ġrose": 8171,
      "Ġpupp": 8172,
      "420": 8173,
      "sters": 8174,
      "ano": 8175,
      "ĠSus": 8176,
      "Ġinstruct": 8177,
      "vit": 8178,
      "Ġadapt": 8179,
      "Ġrecognized": 8180,
      "Ġbanks": 8181,
      "imeters": 8182,
      "Ġkilled": 8183,
      "Ġprogramme": 8184,
      "Ġdates": 8185,
      "Ġ145": 8186,
      "ĠMinister": 8187,
      "ĠJac": 8188,
      "ĠChris": 8189,
      "nic": 8190,
      "Ġtomatoes": 8191,
      "car": 8192,
      "Ġorganized": 8193,
      "Ġsan": 8194,
      "Ġpersonally": 8195,
      "incipal": 8196,
      "Ġeditor": 8197,
      "Ġupload": 8198,
      "Ġpossibility": 8199,
      "Ġlosing": 8200,
      "Ġgrams": 8201,
      "Ġtraveling": 8202,
      "Ġguarante": 8203,
      "Ġwave": 8204,
      "ĠBa": 8205,
      "Ġachieved": 8206,
      "Ġdumpster": 8207,
      "Ġregulations": 8208,
      "ĠItalian": 8209,
      "Ġliked": 8210,
      "ĠRussian": 8211,
      "ĠPass": 8212,
      "mond": 8213,
      "icit": 8214,
      "ĠHaw": 8215,
      "folio": 8216,
      "Ġcorrectly": 8217,
      "Ġkilog": 8218,
      "ĠIll": 8219,
      "ĠABC": 8220,
      "foot": 8221,
      "uction": 8222,
      "Ġtested": 8223,
      "ĠDu": 8224,
      "Ġdifferences": 8225,
      "Ġfigures": 8226,
      "ĠAdv": 8227,
      "Ġcelebrate": 8228,
      "Ġimpossible": 8229,
      ")!}$,": 8230,
      "Ġengagement": 8231,
      "Ġoven": 8232,
      "ius": 8233,
      "Ġalternate": 8234,
      "Ġfeaturing": 8235,
      "itage": 8236,
      "creen": 8237,
      "Ġstorm": 8238,
      "Ġsubsequ": 8239,
      "ĠAcademy": 8240,
      "243": 8241,
      "Ġsup": 8242,
      "nson": 8243,
      "Ġdropped": 8244,
      "cend": 8245,
      "Ġdomestic": 8246,
      "endar": 8247,
      "Ġpartnership": 8248,
      "Ġnative": 8249,
      "ĠCanadian": 8250,
      "Ġ230": 8251,
      "ĠParis": 8252,
      "Ġretire": 8253,
      "date": 8254,
      "ĠWilliam": 8255,
      "Ġmoments": 8256,
      "pat": 8257,
      "Ġexport": 8258,
      "Ġtransportation": 8259,
      "Ġdental": 8260,
      "ĠTown": 8261,
      "Ġmechanism": 8262,
      "Ġfavourite": 8263,
      "Ġcakes": 8264,
      "Ġwitness": 8265,
      "ĠPack": 8266,
      "Ġdesigner": 8267,
      "Ġgym": 8268,
      "Ġjew": 8269,
      "Ġadvoc": 8270,
      "Ġtrig": 8271,
      "Ġgenerated": 8272,
      "ĠRest": 8273,
      "za": 8274,
      "ĠFestival": 8275,
      "(\"$": 8276,
      "Per": 8277,
      "ĠRussia": 8278,
      "Ġresort": 8279,
      "106": 8280,
      "ĠLouis": 8281,
      "Ġworse": 8282,
      "Ġcertified": 8283,
      "Ġapparent": 8284,
      "Ġmac": 8285,
      "Ġ129": 8286,
      "Ġbridge": 8287,
      "ĠAndrew": 8288,
      "Ġguidance": 8289,
      "Ġresearchers": 8290,
      "Ġkit": 8291,
      "Ġprecise": 8292,
      "143": 8293,
      "Ġturning": 8294,
      "Ġ175": 8295,
      "Well": 8296,
      "Ġdefense": 8297,
      "ĠMrs": 8298,
      "122": 8299,
      "Ġcontained": 8300,
      "Ġatmosphere": 8301,
      "ĠSpanish": 8302,
      "Ġadm": 8303,
      "Ġcrucial": 8304,
      "Ġsurprise": 8305,
      "Ġacknow": 8306,
      "Ġremoval": 8307,
      "Ġentreprene": 8308,
      "Ġvir": 8309,
      "Fin": 8310,
      ")^{-\\": 8311,
      "Ġcrew": 8312,
      "Ġnetworks": 8313,
      "Ġbeads": 8314,
      "ĠDisc": 8315,
      "ĠAdminist": 8316,
      "ĠEs": 8317,
      "Ġauthority": 8318,
      "ials": 8319,
      "Ġ2001": 8320,
      "Ġgallery": 8321,
      ".\\": 8322,
      "Ġdishes": 8323,
      "month": 8324,
      "Ġtens": 8325,
      "109": 8326,
      "ĠWomen": 8327,
      "Ġdecides": 8328,
      "}\\|": 8329,
      "ĠThree": 8330,
      "Ġdough": 8331,
      "TA": 8332,
      "ĠIdentiy": 8333,
      "Ġcollaboration": 8334,
      "cont": 8335,
      "minute": 8336,
      "wa": 8337,
      "Ġvast": 8338,
      "intage": 8339,
      "ĠCO": 8340,
      "met": 8341,
      "ĠThose": 8342,
      "ĠExt": 8343,
      "ĠBrand": 8344,
      "Ġsyn": 8345,
      "Ġarts": 8346,
      "Ġfactorization": 8347,
      "Ġ2002": 8348,
      "Ġbes": 8349,
      "Ġdeploy": 8350,
      "Ġib": 8351,
      "Ġveter": 8352,
      "ĠMexico": 8353,
      "VD": 8354,
      "$\",": 8355,
      "John": 8356,
      "^-}": 8357,
      "âĢ¦.": 8358,
      "appy": 8359,
      "Ġarray": 8360,
      "Ġattrib": 8361,
      "Ar": 8362,
      "Ġperforming": 8363,
      "ĠEconom": 8364,
      "Ġchief": 8365,
      "athe": 8366,
      "Ġsight": 8367,
      "rich": 8368,
      "}}{-\\": 8369,
      "izer": 8370,
      "ĠExpanding": 8371,
      "))).": 8372,
      "profit": 8373,
      "Ġpowder": 8374,
      "Ġepisode": 8375,
      "Ġfitness": 8376,
      "Ġaccessories": 8377,
      "Ġswimming": 8378,
      "ban": 8379,
      "zing": 8380,
      "Ġofficer": 8381,
      "CE": 8382,
      "4000": 8383,
      "ĠBed": 8384,
      "ĠAtt": 8385,
      "GB": 8386,
      "Ġ152": 8387,
      "pret": 8388,
      "ĠPoint": 8389,
      "iments": 8390,
      "Ġ270": 8391,
      "lights": 8392,
      "Ġapplying": 8393,
      "Ġwet": 8394,
      "Ġhorizont": 8395,
      "ntown": 8396,
      "andy": 8397,
      "Ġattached": 8398,
      "Ġbact": 8399,
      "Ġ147": 8400,
      "Ġmainly": 8401,
      "ĠLab": 8402,
      "Today": 8403,
      "ĠIre": 8404,
      "Ġequipped": 8405,
      "reams": 8406,
      "liers": 8407,
      "During": 8408,
      "Ġundert": 8409,
      "ĠCath": 8410,
      "Ġdelay": 8411,
      "Ġphones": 8412,
      "Ġenthus": 8413,
      "merce": 8414,
      "Ġmal": 8415,
      "Ġpresents": 8416,
      "orders": 8417,
      "Ġlies": 8418,
      "Ġtrends": 8419,
      "stream": 8420,
      "Ġnucle": 8421,
      "Ġreligious": 8422,
      "Ġforth": 8423,
      "ila": 8424,
      ")})$": 8425,
      "Note": 8426,
      "Ġurban": 8427,
      "edy": 8428,
      "Ġelectrical": 8429,
      "\\|_{": 8430,
      "star": 8431,
      "Ġrein": 8432,
      "Ġpoker": 8433,
      "uine": 8434,
      "Ġpleased": 8435,
      "Ġnick": 8436,
      "Ġmusical": 8437,
      "Pr": 8438,
      "ĠEnergy": 8439,
      "Ġimproving": 8440,
      "Ġunlike": 8441,
      "Ġencoun": 8442,
      "Ġunable": 8443,
      "Ġdiscussed": 8444,
      "Ġroses": 8445,
      "AA": 8446,
      "Sc": 8447,
      "Ġresistance": 8448,
      "ĠAngeles": 8449,
      "ĠSP": 8450,
      "ĠWr": 8451,
      "Ġstrategic": 8452,
      "oston": 8453,
      "ĠiP": 8454,
      "Ġflavor": 8455,
      "Ġtwenty": 8456,
      "ĠCup": 8457,
      "uous": 8458,
      "),\\": 8459,
      "zed": 8460,
      "Ġgrab": 8461,
      "lyn": 8462,
      "Ġprinted": 8463,
      "ml": 8464,
      "Ġforest": 8465,
      ")}}{\\": 8466,
      "ĠNov": 8467,
      "Ġpi": 8468,
      "ĠSaf": 8469,
      "Ġlake": 8470,
      "ĠPac": 8471,
      "Ġchose": 8472,
      "ĠGame": 8473,
      "zer": 8474,
      "orses": 8475,
      "ugs": 8476,
      "Ġft": 8477,
      "Ġproduces": 8478,
      "Ġproof": 8479,
      "vate": 8480,
      "245": 8481,
      "ĠEnd": 8482,
      "pack": 8483,
      "Ġongoing": 8484,
      "Ġcodes": 8485,
      "ideo": 8486,
      "Ġmanaging": 8487,
      "Ġregions": 8488,
      "Ġ148": 8489,
      "arry": 8490,
      "Ġrom": 8491,
      "Ġadventure": 8492,
      "REE": 8493,
      "Ġtomorrow": 8494,
      "Ġputs": 8495,
      "ĠCH": 8496,
      "Ġ((-\\": 8497,
      "Ġtransition": 8498,
      "ĠAccess": 8499,
      "ĠWay": 8500,
      "Ġbeer": 8501,
      "Ġseventh": 8502,
      "Ġquote": 8503,
      "Ġcenters": 8504,
      "Ġ}": 8505,
      "Ġconfident": 8506,
      "Ġshops": 8507,
      "Ġsudden": 8508,
      "Ġguitar": 8509,
      "Ġspeech": 8510,
      "rooms": 8511,
      "Ġrealized": 8512,
      "aturally": 8513,
      "ĠRoom": 8514,
      "Ġflash": 8515,
      "ĠHuman": 8516,
      "Ġreduction": 8517,
      "ĠComplex": 8518,
      "Ġsick": 8519,
      "Ġreceives": 8520,
      "Ġcampus": 8521,
      "____": 8522,
      "Ġ260": 8523,
      "Ġpy": 8524,
      "hr": 8525,
      "Ġsoul": 8526,
      "107": 8527,
      "Ġfunctional": 8528,
      "Ġinstrument": 8529,
      "Ġfavorable": 8530,
      "Ġpurchasing": 8531,
      "Ġstored": 8532,
      "Ġoffices": 8533,
      "okes": 8534,
      "Ġexposure": 8535,
      "Ġcomplaint": 8536,
      "ĠRoyal": 8537,
      "fish": 8538,
      "omy": 8539,
      "Ġtalent": 8540,
      "Ġfactorials": 8541,
      "marily": 8542,
      "ĠMartin": 8543,
      "}}}": 8544,
      "Ġsemi": 8545,
      "ĠWeek": 8546,
      "ĠAR": 8547,
      "Ġprove": 8548,
      "256": 8549,
      "Ġancient": 8550,
      "Ġinclusive": 8551,
      "Ġslot": 8552,
      "points": 8553,
      "Ġgraduate": 8554,
      "ogether": 8555,
      "Ġlock": 8556,
      "iser": 8557,
      "Ġathlet": 8558,
      "rics": 8559,
      "Sec": 8560,
      "MP": 8561,
      "ĠChildren": 8562,
      "Ġmere": 8563,
      "ĠKim": 8564,
      "Ġwins": 8565,
      "Ġabsor": 8566,
      "Ġphotograp": 8567,
      "Ġcapture": 8568,
      "Ġworkshop": 8569,
      "encing": 8570,
      "Ġcone": 8571,
      "Ġinn": 8572,
      "anas": 8573,
      "Ġdeposit": 8574,
      "ĠNav": 8575,
      "arma": 8576,
      "Ġadjacent": 8577,
      "iches": 8578,
      "145": 8579,
      "BD": 8580,
      "Ġder": 8581,
      "Ġrevealed": 8582,
      "Ġversions": 8583,
      "Ġceiling": 8584,
      "ĠJackson": 8585,
      "Ġstretch": 8586,
      "Ġchannels": 8587,
      "inders": 8588,
      "case": 8589,
      "Ġroles": 8590,
      "Ã¼": 8591,
      "ĠSarah": 8592,
      "Ġphotography": 8593,
      "Ġcommunications": 8594,
      "erman": 8595,
      "utral": 8596,
      "Ġborder": 8597,
      "intercept": 8598,
      "ples": 8599,
      "}}}{\\": 8600,
      "Ġstim": 8601,
      "Ġrolls": 8602,
      "Ġcrusher": 8603,
      "Ġfilms": 8604,
      "ĠFull": 8605,
      "ancial": 8606,
      "Ġarchitecture": 8607,
      "Te": 8608,
      "Ġspiritual": 8609,
      "Ġforced": 8610,
      "Ġexplained": 8611,
      "Ġstack": 8612,
      "Ġ190": 8613,
      "Ġplatforms": 8614,
      "Ġfacts": 8615,
      "gas": 8616,
      "Ġpreparation": 8617,
      "Ġflower": 8618,
      "Ġdynamic": 8619,
      "Ġextension": 8620,
      "Ġtap": 8621,
      "Ġ127": 8622,
      "ĠVan": 8623,
      "'\\": 8624,
      "engers": 8625,
      "?\"": 8626,
      "Ġwooden": 8627,
      "Ġdice": 8628,
      "ĠCy": 8629,
      "118": 8630,
      "Ġstatements": 8631,
      "cur": 8632,
      "Ġcylinder": 8633,
      "mates": 8634,
      "Ġdealing": 8635,
      "loc": 8636,
      "iano": 8637,
      "Ġsuggests": 8638,
      "Ġclock": 8639,
      "ican": 8640,
      "]^": 8641,
      "Ġlinked": 8642,
      "asin": 8643,
      "Ġtreatments": 8644,
      "Ġsuggested": 8645,
      "Ġtelling": 8646,
      "Ġfairly": 8647,
      "Ġmanufacturers": 8648,
      "ĠNote": 8649,
      "113": 8650,
      "Ġbench": 8651,
      "Ad": 8652,
      "3000": 8653,
      "ĠDC": 8654,
      "Ġjudge": 8655,
      "Ġsynt": 8656,
      "Ġreporting": 8657,
      "129": 8658,
      "Ġwhenever": 8659,
      "Ġ480": 8660,
      "ught": 8661,
      "Ġspin": 8662,
      "holders": 8663,
      "Ġfalse": 8664,
      "ĠView": 8665,
      "ĠAS": 8666,
      "tons": 8667,
      "Comp": 8668,
      "Ġfiled": 8669,
      "Ġinvestigation": 8670,
      "Ġtech": 8671,
      "front": 8672,
      "Ġgallon": 8673,
      "Ġtiny": 8674,
      "Ġ224": 8675,
      "wing": 8676,
      "ptions": 8677,
      "Ġharvest": 8678,
      "Ġdangerous": 8679,
      "ĠSite": 8680,
      "Ġtherm": 8681,
      "Ġblank": 8682,
      "Ġnights": 8683,
      ")*(-\\": 8684,
      "154": 8685,
      "Ġsky": 8686,
      "Ġcute": 8687,
      "Also": 8688,
      "Ġdust": 8689,
      "rey": 8690,
      "Ġstructures": 8691,
      "ĠOper": 8692,
      "Ġbond": 8693,
      "uster": 8694,
      "Ġfirms": 8695,
      "ĠCode": 8696,
      ")}*(": 8697,
      "COV": 8698,
      "aland": 8699,
      "Ġsustainable": 8700,
      "Ġaside": 8701,
      "Ġplanet": 8702,
      "TC": 8703,
      "Ġlie": 8704,
      "Ġcompris": 8705,
      "iors": 8706,
      "Ġrolling": 8707,
      "Ab": 8708,
      "iana": 8709,
      "Ġformal": 8710,
      "class": 8711,
      "ushed": 8712,
      "Ġjoining": 8713,
      "struction": 8714,
      "Ġok": 8715,
      "ĠDev": 8716,
      "pq": 8717,
      "Ġdisappoint": 8718,
      "utch": 8719,
      "Ġguard": 8720,
      "Ġfrust": 8721,
      "plete": 8722,
      "((-\\": 8723,
      "ĠExec": 8724,
      "Ġreputation": 8725,
      "ĠIntegral": 8726,
      "ĠCoast": 8727,
      "Ġnoise": 8728,
      "level": 8729,
      "Ġhat": 8730,
      "ĠOk": 8731,
      "Ġlogo": 8732,
      "ĠSecret": 8733,
      "rink": 8734,
      "*{\\": 8735,
      "ĠFarm": 8736,
      "Ġlistening": 8737,
      "Ġchapter": 8738,
      "ngthen": 8739,
      "Ġauthors": 8740,
      "irl": 8741,
      "ĠMich": 8742,
      "LY": 8743,
      "Ġsections": 8744,
      "erate": 8745,
      "Ġmortgage": 8746,
      "Ġawarded": 8747,
      "Ġrepeat": 8748,
      "Ġtoile": 8749,
      "}*((-": 8750,
      "oured": 8751,
      "yers": 8752,
      "ĠFair": 8753,
      "ĠMen": 8754,
      "bell": 8755,
      "ccer": 8756,
      "Ġrank": 8757,
      "Ġzone": 8758,
      "rilliant": 8759,
      "Ġcounty": 8760,
      "ĠArea": 8761,
      "Ġmedian": 8762,
      "ailable": 8763,
      "ĠHand": 8764,
      "ĠRev": 8765,
      "ĠCab": 8766,
      "Ġcoin": 8767,
      "alyt": 8768,
      "igure": 8769,
      "iction": 8770,
      "Click": 8771,
      "Ġcircles": 8772,
      "Ġstreets": 8773,
      "Ġdescrib": 8774,
      "Ġteen": 8775,
      "Ġeligible": 8776,
      "Ġtro": 8777,
      "oul": 8778,
      "ĠGuide": 8779,
      "Ġcrisis": 8780,
      "ĠPrice": 8781,
      "Ġrecipes": 8782,
      "ĠArab": 8783,
      "ographic": 8784,
      "etime": 8785,
      "ĠAuthor": 8786,
      "208": 8787,
      "astern": 8788,
      "ĠItaly": 8789,
      "Ġproducing": 8790,
      "ĠLibrary": 8791,
      "Ġsuc": 8792,
      "Have": 8793,
      "Ġrestri": 8794,
      "Car": 8795,
      "iams": 8796,
      "Ġ134": 8797,
      "Ġestimated": 8798,
      "Ġhur": 8799,
      "Ġfolks": 8800,
      "Ġrequests": 8801,
      "ĠGeorg": 8802,
      "Ġord": 8803,
      "rition": 8804,
      "ĠBath": 8805,
      "comm": 8806,
      "Ġads": 8807,
      "Ġrevolution": 8808,
      "Ġfinance": 8809,
      "Ġmerch": 8810,
      "\\%$": 8811,
      "ruck": 8812,
      "Ġarms": 8813,
      "âĢĭ": 8814,
      "ava": 8815,
      "hem": 8816,
      "Ġmining": 8817,
      "quality": 8818,
      "134": 8819,
      "Ġmur": 8820,
      "ĠBow": 8821,
      "Ġshock": 8822,
      "FL": 8823,
      "155": 8824,
      "Ġreferred": 8825,
      "Ġincorpor": 8826,
      "Ġattorney": 8827,
      "long": 8828,
      "Ġrenew": 8829,
      "Ġthin": 8830,
      "iking": 8831,
      "}\\]": 8832,
      "ĠVirginia": 8833,
      "Ġexperiment": 8834,
      "Ġcuts": 8835,
      "Ġsupplement": 8836,
      "Ġmagazine": 8837,
      "Ġnarrow": 8838,
      "ardens": 8839,
      "Ġquad": 8840,
      "Ġenables": 8841,
      "Ġprinting": 8842,
      "Ġcoat": 8843,
      "cue": 8844,
      "ĠHope": 8845,
      "Ġrelief": 8846,
      "138": 8847,
      "ĠTerm": 8848,
      "Ġcookie": 8849,
      "Ġhero": 8850,
      "Ã´": 8851,
      "Ġglasses": 8852,
      "ãĢ": 8853,
      "})^{\\": 8854,
      "ĠJon": 8855,
      "Ġconfirm": 8856,
      "More": 8857,
      "rently": 8858,
      "Ġemails": 8859,
      "urthe": 8860,
      "VAR": 8861,
      "Ind": 8862,
      "vas": 8863,
      "ĠBible": 8864,
      "Ġdent": 8865,
      "Ġdiscipl": 8866,
      "Ġfasc": 8867,
      "Ġdevelopers": 8868,
      "Ġsamples": 8869,
      "HS": 8870,
      "Ġremained": 8871,
      "Ġanticip": 8872,
      "Ġgorgeous": 8873,
      "nda": 8874,
      "cd": 8875,
      "Ġsheets": 8876,
      "ĠSU": 8877,
      "ĠAri": 8878,
      "!*\\": 8879,
      "Ġcareful": 8880,
      "Ġappeal": 8881,
      "ĠMov": 8882,
      "Ġlend": 8883,
      "asters": 8884,
      "Ġcentimeters": 8885,
      "ĠCP": 8886,
      "ĠWild": 8887,
      "Ġshooting": 8888,
      "ĠFederal": 8889,
      "275": 8890,
      "ĠFore": 8891,
      "Ġportfolio": 8892,
      "Ġpace": 8893,
      "Ġavailability": 8894,
      "Ġsees": 8895,
      "Ġpainted": 8896,
      "Press": 8897,
      "Ġinjuries": 8898,
      "Ġlists": 8899,
      "ju": 8900,
      "Ġapplicable": 8901,
      "Ġ155": 8902,
      "Ġhistoric": 8903,
      "stal": 8904,
      "ĠAccount": 8905,
      "pendicular": 8906,
      "rator": 8907,
      "Ġbaking": 8908,
      "Ġselecting": 8909,
      "Ġprimarily": 8910,
      "Ġrecording": 8911,
      "ĠRose": 8912,
      "Ġindustries": 8913,
      "Ġhidden": 8914,
      "))}{\\": 8915,
      "Ġproven": 8916,
      "ĠWin": 8917,
      "ĠBoston": 8918,
      "ĠInstagram": 8919,
      "Ġenem": 8920,
      "ĠTimes": 8921,
      "Ġwidely": 8922,
      "Ġfilling": 8923,
      "Next": 8924,
      "Ġreducing": 8925,
      "Ġdescribe": 8926,
      "Ġdestroy": 8927,
      "Ġduty": 8928,
      "igen": 8929,
      "Ġsymm": 8930,
      "ĠMS": 8931,
      "Ġtransaction": 8932,
      "Two": 8933,
      "Ġfellow": 8934,
      "Ġrandomly": 8935,
      "Ġhospit": 8936,
      "Ġceremon": 8937,
      "Although": 8938,
      "hops": 8939,
      "Ġplot": 8940,
      "Ġvul": 8941,
      "hab": 8942,
      "^{-(": 8943,
      "Ġscheme": 8944,
      "Ġmanagers": 8945,
      "ĠScot": 8946,
      "UL": 8947,
      "Ġlisting": 8948,
      "Ġcance": 8949,
      "ĠRa": 8950,
      "Ġbrace": 8951,
      "Ġcarrying": 8952,
      "Ġpricing": 8953,
      "ĠChief": 8954,
      "ĠEnt": 8955,
      "Ġsmile": 8956,
      "Ġprinciples": 8957,
      "Ġvent": 8958,
      "Bu": 8959,
      "Ġraw": 8960,
      "Ġusage": 8961,
      "Ġtack": 8962,
      "187": 8963,
      "Ġspecialist": 8964,
      "Ġperpendicular": 8965,
      "Ġenterprise": 8966,
      "}-": 8967,
      "ĠApplic": 8968,
      "Ġhabit": 8969,
      "Ġconsumption": 8970,
      "je": 8971,
      "Or": 8972,
      "Whe": 8973,
      "Ġtor": 8974,
      "olly": 8975,
      "ĠSupport": 8976,
      "Ġdispos": 8977,
      "ĠSea": 8978,
      "that": 8979,
      "Ġtwe": 8980,
      "ali": 8981,
      "rants": 8982,
      "Ġpor": 8983,
      "Ġbodies": 8984,
      "parent": 8985,
      "ĠCharl": 8986,
      "'''\\": 8987,
      "lessly": 8988,
      "Ġmuscle": 8989,
      "itionally": 8990,
      "}/(": 8991,
      "Ġpersons": 8992,
      "ĠIreland": 8993,
      "Ġ146": 8994,
      "Ġpets": 8995,
      "Ġsucceed": 8996,
      "Ġgate": 8997,
      "Ġpepper": 8998,
      "just": 8999,
      "agues": 9000,
      "ĠWebs": 9001,
      "Ġsuperior": 9002,
      "ĠSystems": 9003,
      "Ġreb": 9004,
      "Ġcommunicate": 9005,
      "gar": 9006,
      "Ġcapabilities": 9007,
      "Ġdecade": 9008,
      "ĠPlace": 9009,
      "gments": 9010,
      "gling": 9011,
      "Ġpies": 9012,
      "Ġslowly": 9013,
      "Ġ176": 9014,
      "Ġbuyers": 9015,
      "ĠDoes": 9016,
      "otted": 9017,
      "Ġattractive": 9018,
      "Ġchecking": 9019,
      "Ġmg": 9020,
      "Ġcater": 9021,
      "Ġindicate": 9022,
      "riger": 9023,
      "Ġbid": 9024,
      "istant": 9025,
      "ĠCR": 9026,
      "ĠSign": 9027,
      "Ġexpressions": 9028,
      "Ġpod": 9029,
      "Ġgained": 9030,
      "Ġenforce": 9031,
      "Man": 9032,
      "204": 9033,
      "}{|": 9034,
      "nam": 9035,
      "duction": 9036,
      "ogue": 9037,
      "unior": 9038,
      "!}$": 9039,
      "Ġultimately": 9040,
      "Ġhousehold": 9041,
      "Ġfrequency": 9042,
      "omic": 9043,
      "Ġcongruent": 9044,
      "Ġbat": 9045,
      "Ġhotels": 9046,
      "Ġaccomplish": 9047,
      "330": 9048,
      "Ġheating": 9049,
      "Ġjewel": 9050,
      "ĠReport": 9051,
      "Ġgenuine": 9052,
      "âĢĺ": 9053,
      "May": 9054,
      "Ġcriminal": 9055,
      "ĠMorgan": 9056,
      "ĠBrian": 9057,
      "ĠInsurance": 9058,
      "Hi": 9059,
      "Ġwatched": 9060,
      "Ġmaximize": 9061,
      "Ġfounded": 9062,
      "Ġfence": 9063,
      "Ġreads": 9064,
      "Ġcategories": 9065,
      "ĠPrem": 9066,
      "Ġaccord": 9067,
      "friendly": 9068,
      "ĠNone": 9069,
      "Ġ169": 9070,
      "ĠSpirit": 9071,
      "ĠCarolina": 9072,
      "âĢĻ,": 9073,
      "pons": 9074,
      "Ġcharm": 9075,
      "lers": 9076,
      "ĠĠĠĠĠĠĠĠ": 9077,
      "ĠHim": 9078,
      "Ġmillions": 9079,
      "Ġprogramming": 9080,
      "Ġcompliance": 9081,
      "ĠDaniel": 9082,
      "Ġsurprised": 9083,
      "nab": 9084,
      "ĠDie": 9085,
      "Ġ153": 9086,
      "Ġsubjects": 9087,
      "Ġstudying": 9088,
      "Ġmarriage": 9089,
      "Ġkne": 9090,
      "she": 9091,
      "Ġeighth": 9092,
      "Ġsending": 9093,
      "Ġhandling": 9094,
      "Ġcontro": 9095,
      "Ġprompt": 9096,
      "Ġconnections": 9097,
      "Ġradical": 9098,
      "Ġmand": 9099,
      "Ġentries": 9100,
      "ourse": 9101,
      "Ġsoph": 9102,
      "neys": 9103,
      "Ġrelative": 9104,
      "Ġeaten": 9105,
      "Ġcontrols": 9106,
      "Ġfestival": 9107,
      "Ġflood": 9108,
      "Ġdriven": 9109,
      "Ġensuring": 9110,
      "Ġkilometers": 9111,
      "Ġrecommendations": 9112,
      "Ġseriously": 9113,
      "ĠFort": 9114,
      "169": 9115,
      "Ġspray": 9116,
      "ĠIsl": 9117,
      "?âĢĿ": 9118,
      "Ġattacks": 9119,
      "Ġhumans": 9120,
      "arks": 9121,
      "Ġsatisfaction": 9122,
      "Ġinteract": 9123,
      "ĠHospital": 9124,
      "Ġfis": 9125,
      "iform": 9126,
      "Ġguidelines": 9127,
      "Ġ$âĪŀ": 9128,
      "Ġpin": 9129,
      "Ġ700": 9130,
      "Ġpermanent": 9131,
      "enger": 9132,
      "Ġextent": 9133,
      "&=": 9134,
      "Ġrequirement": 9135,
      "Ġsomewhere": 9136,
      "ĠSup": 9137,
      "una": 9138,
      "Ġawards": 9139,
      "eling": 9140,
      "Ġfc": 9141,
      "ĠSmall": 9142,
      "ĠWalk": 9143,
      "Ġprize": 9144,
      "Ġstrict": 9145,
      "ĠKat": 9146,
      "Ġapproval": 9147,
      "Ġadmin": 9148,
      "Ġillness": 9149,
      "Ġsubmitted": 9150,
      "Ġrepresenting": 9151,
      "olid": 9152,
      "ĠCarl": 9153,
      "rth": 9154,
      "gf": 9155,
      "Ġpassword": 9156,
      "Ġlawn": 9157,
      "Ġcomparison": 9158,
      "LA": 9159,
      "Ġconfirmed": 9160,
      "ĠSometimes": 9161,
      "phones": 9162,
      "ĠTha": 9163,
      "Ġinsight": 9164,
      "Ġrating": 9165,
      "127": 9166,
      "Ġphen": 9167,
      "*$": 9168,
      "ĠĊ": 9169,
      "Ġcheaper": 9170,
      "ĠDigital": 9171,
      "Ġtile": 9172,
      "bb": 9173,
      "Ġhorses": 9174,
      "cribed": 9175,
      "Ġ142": 9176,
      "ĠZealand": 9177,
      "Ġelectricity": 9178,
      "ĠTrust": 9179,
      "ĠFOR": 9180,
      "Ñĥ": 9181,
      "EF": 9182,
      "Ġnar": 9183,
      "Ġpaintings": 9184,
      "ĠChampions": 9185,
      "Ġpassengers": 9186,
      "rect": 9187,
      "mers": 9188,
      "elf": 9189,
      "Ġpurchases": 9190,
      "zes": 9191,
      "ircraft": 9192,
      "Ġconsideration": 9193,
      "Ġdisplayed": 9194,
      "Ġtravels": 9195,
      "Ġpotatoes": 9196,
      "Ġphilosoph": 9197,
      "ĠLittle": 9198,
      "EST": 9199,
      "itches": 9200,
      "ounce": 9201,
      "ĠKey": 9202,
      "Ġcomputers": 9203,
      "ĠShop": 9204,
      "Ġviewed": 9205,
      "Ġ288": 9206,
      "Ġgent": 9207,
      "Ġmargin": 9208,
      "ĠRepres": 9209,
      "ĠMont": 9210,
      "Ġreader": 9211,
      "ĠLine": 9212,
      "Ġlaund": 9213,
      "ĠHistory": 9214,
      "Ġmelt": 9215,
      "2018": 9216,
      "Ġerrors": 9217,
      "sha": 9218,
      "Ġterror": 9219,
      "MC": 9220,
      "fall": 9221,
      "Ġnecessarily": 9222,
      "Ġoverse": 9223,
      "page": 9224,
      "ĠBab": 9225,
      "Dist": 9226,
      "Ġhonor": 9227,
      "ĠLin": 9228,
      "Ġ..": 9229,
      "tellect": 9230,
      "ĠLED": 9231,
      "ĠStudents": 9232,
      "Ġauthorities": 9233,
      "Ġpossibilities": 9234,
      "Ġpulled": 9235,
      "Ġpriority": 9236,
      "Bern": 9237,
      "including": 9238,
      "Ġcupcakes": 9239,
      "Ġstickers": 9240,
      "Ġincreasingly": 9241,
      "ĠCe": 9242,
      "ĠVill": 9243,
      "ĠPDF": 9244,
      "Ġwid": 9245,
      "ĠRoman": 9246,
      "ĠObama": 9247,
      "ja": 9248,
      "Ġhttps": 9249,
      "Ġpanels": 9250,
      "ĠLee": 9251,
      "icity": 9252,
      "Ġintroduction": 9253,
      "Ġcompat": 9254,
      "ĠDar": 9255,
      "Ġ137": 9256,
      "Ġopens": 9257,
      "260": 9258,
      "oking": 9259,
      "Ġstake": 9260,
      "Ġbaseball": 9261,
      "ĠStore": 9262,
      "Ġlucky": 9263,
      "',": 9264,
      "RS": 9265,
      "Ġhealing": 9266,
      "ĠJohnson": 9267,
      "Ġcarpet": 9268,
      "whel": 9269,
      "rmore": 9270,
      "ĠExcel": 9271,
      "Ġlaptop": 9272,
      "Ġrefund": 9273,
      "Ġframework": 9274,
      "Of": 9275,
      "lings": 9276,
      "rence": 9277,
      "Tube": 9278,
      "ouch": 9279,
      "ĠEngineering": 9280,
      "Ġleague": 9281,
      "Ġagricult": 9282,
      "Ġfulfill": 9283,
      "Ġtournament": 9284,
      "Ġpotentially": 9285,
      "law": 9286,
      "stery": 9287,
      "Ġconstit": 9288,
      "ĠPythagorean": 9289,
      "ping": 9290,
      "Ġwireless": 9291,
      "Ġpromise": 9292,
      "urthermore": 9293,
      "Oh": 9294,
      "Ġvisits": 9295,
      "ocated": 9296,
      "dt": 9297,
      "Ġworst": 9298,
      "Ġmemories": 9299,
      "Ġvisible": 9300,
      "Ġ720": 9301,
      "Ġmagic": 9302,
      "Dr": 9303,
      "ĠLive": 9304,
      "vals": 9305,
      "Ġexception": 9306,
      "ĠColumb": 9307,
      "ĠJane": 9308,
      "obby": 9309,
      "ulf": 9310,
      "cific": 9311,
      "iti": 9312,
      "Ġbelieved": 9313,
      "estion": 9314,
      "Ġmarked": 9315,
      "Dividing": 9316,
      "ĠRichard": 9317,
      "Ġharmonic": 9318,
      "Ġenjoying": 9319,
      "Ġaxis": 9320,
      "Ġdamaged": 9321,
      "148": 9322,
      "duate": 9323,
      "Ġviolence": 9324,
      "Ġcrime": 9325,
      "1500": 9326,
      "Ġwriters": 9327,
      "Ġocean": 9328,
      "Ġengaged": 9329,
      "ventional": 9330,
      "eding": 9331,
      "Ġinters": 9332,
      "Ġhorizontal": 9333,
      "Ġjustice": 9334,
      "ordan": 9335,
      "Ġcommonly": 9336,
      "Ġcoal": 9337,
      "Ġmm": 9338,
      "Ġarranged": 9339,
      "Ġcovering": 9340,
      "Ġcombining": 9341,
      "Ġhoping": 9342,
      "Ġdrove": 9343,
      "ĠPub": 9344,
      "Ġcontrolled": 9345,
      "ĠGarden": 9346,
      "Ġalongside": 9347,
      "ĠFollow": 9348,
[...]
